<unk>	0
<s>	0
</s>	0
<n>	0
20	-0
..	-1
一个	-2
可以	-3
什么	-4
自己	-5
没有	-6
▁1	-7
00	-8
就是	-9
▁我	-10
201	-11
这个	-12
中国	-13
▁第	-14
如果	-15
不是	-16
200	-17
时候	-18
问题	-19
怎么	-20
工作	-21
公司	-22
--	-23
因为	-24
19	-25
10	-26
in	-27
还是	-28
我们	-29
的人	-30
▁(	-31
但是	-32
时间	-33
现在	-34
知道	-35
▁[	-36
er	-37
....	-38
可能	-39
——	-40
大学	-41
管理	-42
所以	-43
都是	-44
他们	-45
▁2	-46
▁这	-47
on	-48
喜欢	-49
an	-50
需要	-51
▁在	-52
的时候	-53
发展	-54
技术	-55
觉得	-56
研究	-57
▁你	-58
很多	-59
12	-60
),	-61
系统	-62
这样	-63
▁有	-64
我的	-65
如何	-66
开始	-67
▁不	-68
朋友	-69
进行	-70
专业	-71
生活	-72
人的	-73
或者	-74
主要	-75
使用	-76
的是	-77
不能	-78
然后	-79
企业	-80
▁3	-81
自己的	-82
游戏	-83
也是	-84
好的	-85
国家	-86
世界	-87
已经	-88
比较	-89
一下	-90
还有	-91
第一	-92
的一	-93
服务	-94
不会	-95
11	-96
设计	-97
......	-98
产品	-99
为什么	-100
应该	-101
孩子	-102
学校	-103
个人	-104
情况	-105
你的	-106
教育	-107
一般	-108
社会	-109
其他	-110
的话	-111
不要	-112
ar	-113
。。	-114
or	-115
▁201	-116
学生	-117
▁”	-118
en	-119
50	-120
真的	-121
选择	-122
▁《	-123
一些	-124
经济	-125
通过	-126
30	-127
▁0	-128
一定	-129
▁t	-130
那么	-131
一样	-132
”,	-133
学习	-134
到了	-135
中的	-136
这种	-137
部分	-138
感觉	-139
出来	-140
信息	-141
----	-142
at	-143
▁19	-144
基本	-145
不同	-146
大的	-147
15	-148
重要	-149
而且	-150
其实	-151
是一	-152
文化	-153
为了	-154
影响	-155
1.	-156
-0	-157
es	-158
上的	-159
25	-160
al	-161
发现	-162
▁一	-163
最后	-164
能力	-165
之后	-166
一起	-167
工程	-168
这些	-169
▁4	-170
方法	-171
大家	-172
手机	-173
市场	-174
东西	-175
18	-176
关系	-177
方面	-178
以及	-179
非常	-180
作为	-181
▁“	-182
建议	-183
!!	-184
也不	-185
▁如果	-186
2.	-187
同时	-188
所有	-189
:“	-190
16	-191
▁A	-192
只是	-193
了一	-194
...	-195
项目	-196
他的	-197
it	-198
内容	-199
he	-200
ou	-201
起来	-202
一点	-203
成为	-204
一直	-205
▁S	-206
出现	-207
人民	-208
生产	-209
直接	-210
”。	-211
要求	-212
st	-213
科学	-214
安全	-215
100	-216
美国	-217
组织	-218
希望	-219
建设	-220
第二	-221
电影	-222
方式	-223
▁C	-224
提供	-225
看到	-226
活动	-227
环境	-228
▁200	-229
)。	-230
om	-231
两个	-232
政府	-233
对于	-234
13	-235
只有	-236
功能	-237
14	-238
不过	-239
ic	-240
是什么	-241
特别	-242
地方	-243
le	-244
这么	-245
的事	-246
一次	-247
中心	-248
其中	-249
▁5	-250
那个	-251
有限	-252
学院	-253
宝宝	-254
各种	-255
网络	-256
基础	-257
认为	-258
分析	-259
历史	-260
17	-261
单位	-262
虽然	-263
以后	-264
国际	-265
▁当	-266
60	-267
北京	-268
包括	-269
3.	-270
▁如何	-271
老师	-272
城市	-273
自然	-274
re	-275
现代	-276
来的	-277
数据	-278
根据	-279
作品	-280
80	-281
发生	-282
▁1.	-283
控制	-284
以上	-285
支持	-286
开发	-287
不知道	-288
过程	-289
处理	-290
注意	-291
音乐	-292
多少	-293
代表	-294
am	-295
来说	-296
获得	-297
is	-298
收藏	-299
全国	-300
标准	-301
出版	-302
哪些	-303
具有	-304
软件	-305
别人	-306
比如	-307
艺术	-308
▁M	-309
作用	-310
ing	-311
原因	-312
1]	-313
40	-314
是否	-315
回答	-316
由于	-317
id	-318
结果	-319
电脑	-320
质量	-321
之前	-322
容易	-323
正常	-324
资源	-325
应用	-326
存在	-327
199	-328
医院	-329
投资	-330
知识	-331
▁大	-332
科技	-333
完全	-334
不好	-335
毕业	-336
解决	-337
后来	-338
负责	-339
人员	-340
你们	-341
相关	-342
有限公司	-343
推荐	-344
这是	-345
运动	-346
日本	-347
6.	-348
年的	-349
一种	-350
左右	-351
0.	-352
el	-353
▁I	-354
▁s	-355
建筑	-356
行业	-357
▁他	-358
品牌	-359
et	-360
必须	-361
▁c	-362
▁P	-363
电视	-364
24	-365
价格	-366
效果	-367
as	-368
日期	-369
只能	-370
保护	-371
资料	-372
样的	-373
之间	-374
只要	-375
治疗	-376
了解	-377
简单	-378
ro	-379
故事	-380
提高	-381
甚至	-382
000	-383
都有	-384
机构	-385
委员	-386
不到	-387
成功	-388
的小	-389
看看	-390
地区	-391
▁m	-392
也有	-393
、《	-394
评价	-395
能够	-396
里面	-397
计算	-398
国内	-399
参加	-400
系列	-401
就会	-402
目前	-403
当时	-404
里的	-405
任何	-406
条件	-407
▁T	-408
》,	-409
参考	-410
▁B	-411
▁2.	-412
▁.	-413
无法	-414
结构	-415
完成	-416
部门	-417
因此	-418
▁[1]	-419
▁D	-420
进入	-421
教学	-422
ac	-423
是不是	-424
的大	-425
决定	-426
面积	-427
▁本	-428
努力	-429
小时	-430
最好	-431
▁为什么	-432
▁第二	-433
职业	-434
用户	-435
就可以	-436
女生	-437
4.	-438
告诉	-439
才能	-440
7.	-441
有关	-442
意思	-443
几个	-444
▁-	-445
帮助	-446
规定	-447
实现	-448
上海	-449
操作	-450
都不	-451
▁但	-452
电话	-453
计划	-454
会有	-455
每天	-456
的问题	-457
关于	-458
产生	-459
那些	-460
拥有	-461
合作	-462
心理	-463
普通	-464
▁但是	-465
设备	-466
▁。	-467
是一个	-468
这一	-469
用的	-470
之一	-471
23	-472
考虑	-473
电子	-474
理论	-475
▁w	-476
ion	-477
增加	-478
多的	-479
8.	-480
第三	-481
ot	-482
作者	-483
▁而	-484
90	-485
行为	-486
??	-487
健康	-488
怎么办	-489
水平	-490
父母	-491
平台	-492
ht	-493
ad	-494
经营	-495
具体	-496
精神	-497
引用	-498
形成	-499
▁,	-500
ow	-501
目标	-502
)、	-503
价值	-504
文件	-505
。。。	-506
准备	-507
分钟	-508
适合	-509
新的	-510
身体	-511
是在	-512
▁所以	-513
70	-514
ol	-515
一个人	-516
模式	-517
--------	-518
工业	-519
实际	-520
得到	-521
显示	-522
优秀	-523
不了	-524
▁这个	-525
个月	-526
==	-527
5.	-528
▁b	-529
考试	-530
材料	-531
空间	-532
介绍	-533
英语	-534
经验	-535
有的	-536
说的	-537
除了	-538
有点	-539
范围	-540
收入	-541
产业	-542
▁小	-543
综合	-544
il	-545
检查	-546
▁从	-547
▁因为	-548
28	-549
》、《	-550
理解	-551
同学	-552
属于	-553
继续	-554
办法	-555
不错	-556
ed	-557
当然	-558
并且	-559
出了	-560
这里	-561
类型	-562
性的	-563
表现	-564
肯定	-565
▁是	-566
这样的	-567
视频	-568
行政	-569
有些	-570
引用日期	-571
▁中国	-572
程序	-573
▁L	-574
公里	-575
▁d	-576
26	-577
下来	-578
导致	-579
规划	-580
首先	-581
自动	-582
谢谢	-583
有什么	-584
以前	-585
of	-586
名字	-587
利用	-588
▁人	-589
有一	-590
下的	-591
,“	-592
家庭	-593
经常	-594
体验	-595
采用	-596
建立	-597
▁G	-598
▁三	-599
主任	-600
▁f	-601
▁6	-602
主义	-603
▁p	-604
and	-605
另外	-606
集团	-607
————	-608
语言	-609
就不	-610
制作	-611
哈哈	-612
河北	-613
▁3.	-614
爱情	-615
查看	-616
有人	-617
接受	-618
指导	-619
安装	-620
不断	-621
22	-622
领导	-623
9.	-624
可是	-625
销售	-626
▁the	-627
银行	-628
▁第一	-629
方向	-630
~~	-631
达到	-632
成立	-633
传统	-634
想要	-635
重点	-636
业务	-637
速度	-638
说明	-639
法律	-640
状态	-641
客户	-642
网站	-643
改变	-644
教师	-645
时代	-646
实验	-647
小说	-648
真正	-649
坚持	-650
给我	-651
医生	-652
今天	-653
也可以	-654
去了	-655
她的	-656
不可	-657
设置	-658
经历	-659
面的	-660
▁最	-661
怎样	-662
好了	-663
下载	-664
妈妈	-665
生物	-666
造成	-667
意义	-668
出的	-669
那种	-670
任务	-671
27	-672
对方	-673
找到	-674
都会	-675
我是	-676
我觉得	-677
旅游	-678
os	-679
▁R	-680
申请	-681
汽车	-682
地产	-683
ch	-684
简介	-685
技能	-686
男生	-687
保险	-688
有效	-689
子的	-690
▁已	-691
消费	-692
▁第三	-693
//	-694
不得	-695
政策	-696
委员会	-697
的情况	-698
责任	-699
给你	-700
198	-701
高中	-702
变化	-703
培训	-704
▁那	-705
▁二	-706
表示	-707
▁H	-708
在一起	-709
▁F	-710
思想	-711
确定	-712
▁我们	-713
保持	-714
+1	-715
ig	-716
位置	-717
等等	-718
关注	-719
com	-720
▁中	-721
、“	-722
35	-723
▁W	-724
文学	-725
让我	-726
毕竟	-727
明显	-728
结合	-729
很好	-730
按照	-731
21	-732
我就	-733
的女	-734
好像	-735
事情	-736
哪个	-737
相信	-738
制度	-739
▁可以	-740
45	-741
以下	-742
于是	-743
全部	-744
▁对	-745
十二	-746
机会	-747
认识	-748
是个	-749
ent	-750
▁就	-751
以为	-752
联系	-753
ay	-754
清楚	-755
mm	-756
需求	-757
增长	-758
成绩	-759
万元	-760
突然	-761
答案	-762
类的	-763
了一个	-764
实施	-765
un	-766
更多	-767
未来	-768
29	-769
经过	-770
▁现在	-771
▁7	-772
让你	-773
▁a	-774
移动	-775
时期	-776
超过	-777
怀孕	-778
生的	-779
创新	-780
许多	-781
政治	-782
自由	-783
一定要	-784
交通	-785
▁)	-786
用于	-787
的地方	-788
农业	-789
▁E	-790
哪里	-791
演员	-792
人们	-793
请问	-794
房地产	-795
生命	-796
位于	-797
也会	-798
us	-799
领域	-800
并不	-801
多了	-802
卫生	-803
大概	-804
高的	-805
看待	-806
丰富	-807
比赛	-808
特点	-809
严重	-810
im	-811
咨询	-812
引起	-813
整个	-814
不用	-815
广告	-816
的事情	-817
反应	-818
成了	-819
晚上	-820
世纪	-821
皮肤	-822
稳定	-823
根本	-824
结婚	-825
的东西	-826
1-	-827
有没有	-828
程度	-829
ve	-830
平方	-831
过去	-832
▁王	-833
男人	-834
一步	-835
网上	-836
▁【	-837
是不	-838
数学	-839
投票	-840
遇到	-841
关键	-842
到底	-843
一年	-844
▁l	-845
培养	-846
保证	-847
提升	-848
距离	-849
体系	-850
是一种	-851
__	-852
量的	-853
民族	-854
可能是	-855
▁n	-856
图书	-857
感情	-858
ip	-859
od	-860
成本	-861
来了	-862
色的	-863
动物	-864
所谓	-865
▁9	-866
期间	-867
形式	-868
每个	-869
重新	-870
▁要	-871
家的	-872
组成	-873
交流	-874
后的	-875
评论	-876
▁8	-877
受到	-878
如此	-879
阶段	-880
▁of	-881
我也	-882
一切	-883
金融	-884
事业	-885
▁N	-886
性能	-887
▁看	-888
2]	-889
▁此	-890
执行	-891
不仅	-892
办公	-893
攻击	-894
2)	-895
越来	-896
!!!	-897
ap	-898
习惯	-899
微信	-900
加入	-901
是我	-902
为主	-903
%25	-904
”、“	-905
越来越	-906
人物	-907
出生	-908
家里	-909
出版社	-910
500	-911
目的	-912
制造	-913
▁4.	-914
一天	-915
还要	-916
二十	-917
而是	-918
独立	-919
监督	-920
▁高	-921
证明	-922
▁查看	-923
必要	-924
学会	-925
参与	-926
内存	-927
确实	-928
不想	-929
大多	-930
▁然后	-931
相对	-932
协会	-933
交易	-934
角色	-935
意见	-936
曾经	-937
://	-938
句话	-939
媒体	-940
应当	-941
更加	-942
分别	-943
课程	-944
最终	-945
英雄	-946
过的	-947
现实	-948
▁y	-949
中央	-950
也就是	-951
心里	-952
▁199	-953
核心	-954
打开	-955
配置	-956
我想	-957
怎么样	-958
也没	-959
如果你	-960
劳动	-961
至于	-962
正式	-963
十分	-964
压力	-965
力量	-966
发布	-967
▁她	-968
农村	-969
风格	-970
▁收藏	-971
方便	-972
本身	-973
36	-974
▁in	-975
▁上	-976
应该是	-977
无论	-978
▁有用	-979
德国	-980
年轻	-981
每次	-982
........	-983
战略	-984
ct	-985
计算机	-986
不同的	-987
1)	-988
人类	-989
玩家	-990
训练	-991
优势	-992
em	-993
我的收藏	-994
百度	-995
▁已投票	-996
▁查看我的收藏	-997
教授	-998
2-	-999
最大	-1000
你可以	-1001
解释	-1002
▁该	-1003
英国	-1004
三个	-1005
不多	-1006
食物	-1007
op	-1008
几乎	-1009
意识	-1010
化学	-1011
绝对	-1012
共同	-1013
人口	-1014
尤其	-1015
愿意	-1016
总是	-1017
▁h	-1018
商业	-1019
注册	-1020
营养	-1021
专家	-1022
更新	-1023
长期	-1024
很难	-1025
版本	-1026
▁可	-1027
中学	-1028
十一	-1029
▁一个	-1030
上了	-1031
tp	-1032
合同	-1033
48	-1034
战争	-1035
满足	-1036
改革	-1037
的好	-1038
就能	-1039
先进	-1040
的高	-1041
知乎	-1042
称为	-1043
机械	-1044
让人	-1045
声音	-1046
幸福	-1047
33	-1048
随着	-1049
过程中	-1050
兴趣	-1051
积极	-1052
QQ	-1053
联合	-1054
ir	-1055
他们的	-1056
疾病	-1057
离开	-1058
工具	-1059
方案	-1060
来自	-1061
ur	-1062
年代	-1063
全球	-1064
全面	-1065
事件	-1066
有个	-1067
记得	-1068
从事	-1069
然而	-1070
出去	-1071
值得	-1072
是因为	-1073
明白	-1074
慢慢	-1075
one	-1076
文章	-1077
医疗	-1078
细胞	-1079
照片	-1080
ver	-1081
者的	-1082
▁其实	-1083
心的	-1084
购买	-1085
父亲	-1086
运行	-1087
▁g	-1088
题主	-1089
▁天	-1090
伤害	-1091
战斗	-1092
好好	-1093
物质	-1094
食品	-1095
人才	-1096
开展	-1097
基金	-1098
区域	-1099
力的	-1100
);	-1101
体育	-1102
新闻	-1103
78	-1104
长的	-1105
2000	-1106
物理	-1107
结束	-1108
做的	-1109
免费	-1110
博士	-1111
第一次	-1112
它的	-1113
身份	-1114
永远	-1115
歌曲	-1116
调整	-1117
ter	-1118
):	-1119
大部分	-1120
http	-1121
香港	-1122
▁美	-1123
75	-1124
空气	-1125
植物	-1126
真实	-1127
▁想	-1128
分享	-1129
》(	-1130
资金	-1131
化的	-1132
相当	-1133
▁用	-1134
%。	-1135
gt	-1136
恢复	-1137
衣服	-1138
▁1、	-1139
会议	-1140
减少	-1141
母亲	-1142
粉丝	-1143
面对	-1144
▁当然	-1145
地址	-1146
因素	-1147
▁马	-1148
特殊	-1149
联网	-1150
ag	-1151
即使	-1152
营销	-1153
本科	-1154
男朋友	-1155
保障	-1156
▁其	-1157
设施	-1158
机关	-1159
阅读	-1160
导演	-1161
▁新	-1162
风险	-1163
的时间	-1164
公众	-1165
创造	-1166
节目	-1167
记录	-1168
背景	-1169
ind	-1170
至少	-1171
▁第四	-1172
有了	-1173
重要的	-1174
现象	-1175
著名	-1176
名称	-1177
即可	-1178
团队	-1179
体的	-1180
▁2、	-1181
爱的	-1182
都在	-1183
99	-1184
%,	-1185
身边	-1186
▁10	-1187
竞争	-1188
特色	-1189
▁如何评价	-1190
合理	-1191
对象	-1192
规模	-1193
下去	-1194
别的	-1195
▁主	-1196
ut	-1197
2013	-1198
有一个	-1199
避免	-1200
智能	-1201
最佳	-1202
宣传	-1203
我不	-1204
性格	-1205
正确	-1206
实在	-1207
图片	-1208
提出	-1209
38	-1210
人生	-1211
都可以	-1212
平均	-1213
商品	-1214
回来	-1215
爱好	-1216
》《	-1217
书记	-1218
苹果	-1219
加强	-1220
300	-1221
创作	-1222
有哪些	-1223
变成	-1224
表达	-1225
最近	-1226
土地	-1227
说了	-1228
十三	-1229
55	-1230
符合	-1231
持续	-1232
▁老	-1233
也没有	-1234
▁如	-1235
取得	-1236
正在	-1237
的一个	-1238
会员	-1239
眼睛	-1240
▁饰	-1241
OS	-1242
小学	-1243
最高	-1244
连接	-1245
ab	-1246
2014	-1247
的不	-1248
▁J	-1249
多年	-1250
思考	-1251
女孩	-1252
运营	-1253
2015	-1254
测试	-1255
2010	-1256
显卡	-1257
也许	-1258
类似	-1259
我们的	-1260
快速	-1261
少年	-1262
它们	-1263
平时	-1264
手术	-1265
▁没有	-1266
就要	-1267
工资	-1268
▁四	-1269
概念	-1270
▁如何看待	-1271
终于	-1272
会计	-1273
好看	-1274
,19	-1275
快乐	-1276
飞机	-1277
▁全	-1278
出来的	-1279
儿童	-1280
▁没	-1281
接触	-1282
的发展	-1283
分为	-1284
装备	-1285
实践	-1286
山东	-1287
追求	-1288
▁to	-1289
另一	-1290
分手	-1291
促进	-1292
▁K	-1293
中华	-1294
你要	-1295
唯一	-1296
▁and	-1297
▁/	-1298
女人	-1299
ce	-1300
▁参考	-1301
人家	-1302
▁[2]	-1303
动作	-1304
中文	-1305
才是	-1306
开心	-1307
十五	-1308
很大	-1309
回家	-1310
到的	-1311
32	-1312
女性	-1313
ex	-1314
▁为	-1315
说是	-1316
说话	-1317
详细	-1318
▁和	-1319
及时	-1320
亿元	-1321
工艺	-1322
通常	-1323
角度	-1324
2018	-1325
英文	-1326
第四	-1327
恋爱	-1328
感受	-1329
都能	-1330
升级	-1331
**	-1332
高考	-1333
基地	-1334
▁5.	-1335
自我	-1336
lt	-1337
3-	-1338
儿子	-1339
描述	-1340
自身	-1341
很多人	-1342
不如	-1343
创业	-1344
我国	-1345
85	-1346
数字	-1347
还能	-1348
不少	-1349
机器	-1350
死亡	-1351
▁20	-1352
及其	-1353
是有	-1354
登记	-1355
青年	-1356
报告	-1357
放弃	-1358
▁不过	-1359
都没有	-1360
区别	-1361
喜欢的	-1362
》。	-1363
形象	-1364
原则	-1365
下面	-1366
欢迎	-1367
行的	-1368
成长	-1369
if	-1370
调查	-1371
研究生	-1372
我在	-1373
▁前	-1374
论文	-1375
学术	-1376
上面	-1377
主动	-1378
▁再	-1379
高级	-1380
温度	-1381
动画	-1382
加上	-1383
th	-1384
一样的	-1385
颜色	-1386
今年	-1387
放在	-1388
2016	-1389
看着	-1390
欧洲	-1391
大学生	-1392
蛋白	-1393
um	-1394
患者	-1395
资产	-1396
▁V	-1397
房屋	-1398
参数	-1399
最大的	-1400
点击	-1401
过了	-1402
针对	-1403
文明	-1404
▁同	-1405
医学	-1406
有多	-1407
太多	-1408
轻松	-1409
互联网	-1410
600	-1411
▁you	-1412
成员	-1413
都要	-1414
等级	-1415
▁长	-1416
也就	-1417
检测	-1418
还可以	-1419
员工	-1420
什么的	-1421
统一	-1422
====	-1423
降低	-1424
想法	-1425
▁O	-1426
就行	-1427
这个问题	-1428
▁求	-1429
的工作	-1430
法国	-1431
酒店	-1432
官方	-1433
完美	-1434
▁无	-1435
段时间	-1436
太阳	-1437
▁还有	-1438
连续	-1439
补充	-1440
发动	-1441
想到	-1442
34	-1443
2017	-1444
硕士	-1445
学科	-1446
娱乐	-1447
所在	-1448
并不是	-1449
▁总	-1450
当地	-1451
定的	-1452
加工	-1453
先生	-1454
内的	-1455
很有	-1456
2009	-1457
几年	-1458
▁我的	-1459
复杂	-1460
ation	-1461
不起	-1462
情绪	-1463
科研	-1464
错误	-1465
不管	-1466
病毒	-1467
几天	-1468
看了	-1469
大利	-1470
我说	-1471
从而	-1472
经典	-1473
专辑	-1474
65	-1475
▁说	-1476
剧情	-1477
▁谢	-1478
64	-1479
神经	-1480
广东	-1481
过来	-1482
本人	-1483
3]	-1484
不够	-1485
罗斯	-1486
超级	-1487
估计	-1488
最好的	-1489
搜索	-1490
女朋友	-1491
时的	-1492
37	-1493
掌握	-1494
航空	-1495
:1	-1496
并没有	-1497
武器	-1498
31	-1499
费用	-1500
----------------	-1501
发表	-1502
输入	-1503
不行	-1504
规范	-1505
日常	-1506
▁怎么	-1507
而已	-1508
合适	-1509
资格	-1510
例如	-1511
▁最后	-1512
美术	-1513
原来	-1514
年龄	-1515
动力	-1516
便宜	-1517
内部	-1518
那里	-1519
身上	-1520
变得	-1521
大量	-1522
爸爸	-1523
承担	-1524
完善	-1525
就像	-1526
文字	-1527
不知	-1528
的新	-1529
冠军	-1530
不太	-1531
微博	-1532
态度	-1533
都没	-1534
的主	-1535
做好	-1536
不上	-1537
▁3、	-1538
十四	-1539
担心	-1540
2011	-1541
翻译	-1542
之间的	-1543
,《	-1544
实力	-1545
十八	-1546
2012	-1547
安排	-1548
天下	-1549
药物	-1550
房子	-1551
公共	-1552
▁的	-1553
5-	-1554
韩国	-1555
还在	-1556
利益	-1557
行动	-1558
也很	-1559
39	-1560
练习	-1561
来看	-1562
吃饭	-1563
记忆	-1564
就算	-1565
ie	-1566
分布	-1567
兄弟	-1568
生态	-1569
还没	-1570
笔记	-1571
淘宝	-1572
回到	-1573
往往	-1574
商务	-1575
样子	-1576
2019	-1577
2008	-1578
1000	-1579
你是	-1580
支付	-1581
屏幕	-1582
的心	-1583
后面	-1584
成果	-1585
两种	-1586
以来	-1587
明确	-1588
特征	-1589
编辑	-1590
十六	-1591
成熟	-1592
整体	-1593
▁首先	-1594
ba	-1595
台湾	-1596
主要是	-1597
广州	-1598
帮忙	-1599
就业	-1600
读书	-1601
ia	-1602
ke	-1603
本书	-1604
的原因	-1605
大小	-1606
演唱	-1607
症状	-1608
av	-1609
观察	-1610
享受	-1611
统计	-1612
数量	-1613
大多数	-1614
相同	-1615
公众号	-1616
地球	-1617
▁李	-1618
年度	-1619
来源	-1620
oc	-1621
ang	-1622
人民政府	-1623
充分	-1624
amp	-1625
反正	-1626
▁由于	-1627
运输	-1628
带着	-1629
感染	-1630
4-	-1631
十年	-1632
做了	-1633
各位	-1634
限制	-1635
进一步	-1636
3)	-1637
革命	-1638
拒绝	-1639
iP	-1640
的方法	-1641
▁以	-1642
▁虽然	-1643
▁多	-1644
素质	-1645
本来	-1646
▁什么	-1647
你会	-1648
理念	-1649
不足	-1650
办理	-1651
直到	-1652
PU	-1653
深圳	-1654
三年	-1655
认证	-1656
所有的	-1657
教材	-1658
开放	-1659
▁而且	-1660
公路	-1661
推广	-1662
办公室	-1663
▁张	-1664
认真	-1665
▁一般	-1666
让他	-1667
临床	-1668
在于	-1669
浙江	-1670
厘米	-1671
也要	-1672
了吧	-1673
资本	-1674
困难	-1675
理想	-1676
组合	-1677
摄影	-1678
▁参考资料	-1679
方面的	-1680
。。。。	-1681
经理	-1682
更好	-1683
给他	-1684
平方米	-1685
在我	-1686
▁自	-1687
大型	-1688
河北省	-1689
再次	-1690
常见	-1691
社区	-1692
差不多	-1693
PS	-1694
▁好	-1695
是指	-1696
逐渐	-1697
担任	-1698
足球	-1699
6-	-1700
消息	-1701
思维	-1702
尽量	-1703
适应	-1704
做到	-1705
▁——	-1706
地位	-1707
og	-1708
nd	-1709
排名	-1710
2,	-1711
发行	-1712
失败	-1713
▁这种	-1714
考研	-1715
▁th	-1716
看见	-1717
,,	-1718
而言	-1719
没什么	-1720
学的	-1721
▁安	-1722
吸引	-1723
▁对于	-1724
现场	-1725
就有	-1726
的感觉	-1727
ess	-1728
判断	-1729
ri	-1730
固定	-1731
同样	-1732
月经	-1733
49	-1734
电池	-1735
家人	-1736
发挥	-1737
启动	-1738
金属	-1739
事实	-1740
▁U	-1741
电源	-1742
▁请问	-1743
讨论	-1744
感到	-1745
怎样的	-1746
中医	-1747
对你	-1748
进步	-1749
的生活	-1750
定义	-1751
麻烦	-1752
800	-1753
▁主要	-1754
试试	-1755
发展的	-1756
▁谢邀	-1757
聊天	-1758
一条	-1759
66	-1760
农民	-1761
1,	-1762
学历	-1763
双方	-1764
她们	-1765
那样	-1766
其它	-1767
件事	-1768
接口	-1769
电视剧	-1770
措施	-1771
和我	-1772
大会	-1773
不住	-1774
老板	-1775
="	-1776
▁去	-1777
集中	-1778
依然	-1779
公司的	-1780
联盟	-1781
贷款	-1782
绿色	-1783
元素	-1784
▁每	-1785
表演	-1786
IP	-1787
400	-1788
2、	-1789
重大	-1790
不喜欢	-1791
研发	-1792
————————	-1793
通信	-1794
高速	-1795
▁第五	-1796
武汉	-1797
原理	-1798
刺激	-1799
比例	-1800
道路	-1801
▁6.	-1802
原创	-1803
姐姐	-1804
IN	-1805
表面	-1806
专门	-1807
配合	-1808
财务	-1809
广泛	-1810
all	-1811
维护	-1812
实用	-1813
拍摄	-1814
下降	-1815
吉林	-1816
▁先	-1817
可能会	-1818
强的	-1819
现在的	-1820
睡觉	-1821
尤其是	-1822
河南	-1823
ok	-1824
不在	-1825
▁学生	-1826
真是	-1827
▁后来	-1828
修改	-1829
青春	-1830
47	-1831
南京	-1832
▁五	-1833
女儿	-1834
明星	-1835
小的	-1836
如果是	-1837
有很多	-1838
足够	-1839
出口	-1840
公开	-1841
美丽	-1842
▁这是	-1843
饮食	-1844
内心	-1845
基本上	-1846
专业的	-1847
星期	-1848
你就	-1849
的一种	-1850
某些	-1851
多种	-1852
两人	-1853
2007	-1854
之类的	-1855
施工	-1856
▁另外	-1857
58	-1858
沟通	-1859
▁因此	-1860
名为	-1861
不懂	-1862
外的	-1863
主角	-1864
▁与	-1865
硬盘	-1866
在这	-1867
投入	-1868
型的	-1869
68	-1870
少女	-1871
十七	-1872
垃圾	-1873
而不是	-1874
属性	-1875
古代	-1876
的前	-1877
吸收	-1878
制定	-1879
千万	-1880
观众	-1881
的影响	-1882
校园	-1883
两年	-1884
的情况下	-1885
生长	-1886
点的	-1887
▁198	-1888
等奖	-1889
漂亮	-1890
格式	-1891
BA	-1892
中间	-1893
▁x	-1894
1/	-1895
传播	-1896
委会	-1897
09	-1898
俄罗斯	-1899
作业	-1900
回事	-1901
周围	-1902
品质	-1903
▁作为	-1904
IS	-1905
都很	-1906
真的是	-1907
▁=	-1908
第一个	-1909
协调	-1910
州市	-1911
分类	-1912
江苏	-1913
驱动	-1914
逻辑	-1915
状况	-1916
感谢	-1917
满意	-1918
还会	-1919
代理	-1920
机制	-1921
买了	-1922
▁有哪些	-1923
梦想	-1924
既然	-1925
ows	-1926
4]	-1927
痛苦	-1928
多个	-1929
▁年	-1930
不再	-1931
词条	-1932
▁2018	-1933
东北	-1934
供应	-1935
用了	-1936
至今	-1937
▁为了	-1938
进去	-1939
效率	-1940
空调	-1941
是怎么	-1942
技巧	-1943
充满	-1944
算是	-1945
公园	-1946
完整	-1947
改善	-1948
准确	-1949
铁路	-1950
主题	-1951
ul	-1952
带来	-1953
尺寸	-1954
的那	-1955
也不是	-1956
处于	-1957
从来	-1958
机的	-1959
各类	-1960
也能	-1961
规则	-1962
第五	-1963
理由	-1964
部队	-1965
死了	-1966
特别是	-1967
东方	-1968
平衡	-1969
观点	-1970
▁谁	-1971
08	-1972
协议	-1973
▁西	-1974
流量	-1975
hone	-1976
▁初	-1977
老公	-1978
手段	-1979
能量	-1980
生素	-1981
▁据	-1982
也不会	-1983
一定的	-1984
附近	-1985
度的	-1986
▁后	-1987
主持	-1988
那就	-1989
我要	-1990
很少	-1991
严格	-1992
瞬间	-1993
的方式	-1994
试验	-1995
定位	-1996
学位	-1997
幼儿	-1998
2006	-1999
体现	-2000
的主要	-2001
尝试	-2002
理事	-2003
AP	-2004
批准	-2005
7-	-2006
▁|	-2007
有着	-2008
或许	-2009
下了	-2010
有所	-2011
▁比如	-2012
:00	-2013
的基础	-2014
寻找	-2015
随便	-2016
危险	-2017
师范	-2018
相比	-2019
▁我是	-2020
飞行	-2021
分子	-2022
各个	-2023
名的	-2024
▁开	-2025
贸易	-2026
家长	-2027
信号	-2028
减肥	-2029
相应	-2030
添加	-2031
重庆	-2032
有时候	-2033
一句	-2034
似乎	-2035
面前	-2036
est	-2037
!!!!	-2038
输出	-2039
问题的	-2040
先后	-2041
▁他们	-2042
邀请	-2043
ec	-2044
高等	-2045
和国	-2046
是由	-2047
46	-2048
一个月	-2049
成的	-2050
头发	-2051
56	-2052
宿舍	-2053
可爱	-2054
说我	-2055
目录	-2056
每年	-2057
道德	-2058
写的	-2059
好多	-2060
大师	-2061
art	-2062
有时	-2063
79	-2064
情感	-2065
财政	-2066
美的	-2067
▁[3]	-2068
▁同时	-2069
用来	-2070
十九	-2071
推进	-2072
▁金	-2073
一家	-2074
日子	-2075
印象	-2076
在线	-2077
姑娘	-2078
种植	-2079
赛季	-2080
不然	-2081
采取	-2082
▁X	-2083
令人	-2084
的故事	-2085
相互	-2086
了我	-2087
天天	-2088
AC	-2089
不错的	-2090
系统的	-2091
湖南	-2092
情况下	-2093
indows	-2094
漫画	-2095
展开	-2096
证书	-2097
pp	-2098
AT	-2099
很快	-2100
迅速	-2101
歌手	-2102
就在	-2103
▁能	-2104
杂志	-2105
上去	-2106
ist	-2107
仍然	-2108
地的	-2109
是你	-2110
一张	-2111
???	-2112
▁外	-2113
▁请	-2114
走了	-2115
实际上	-2116
会不会	-2117
人在	-2118
总结	-2119
一边	-2120
通知	-2121
循环	-2122
提前	-2123
消费者	-2124
美元	-2125
成就	-2126
意大利	-2127
打造	-2128
深入	-2129
运用	-2130
化妆	-2131
群众	-2132
污染	-2133
ate	-2134
▁这些	-2135
具备	-2136
CD	-2137
▁"	-2138
GB	-2139
院校	-2140
这次	-2141
地理	-2142
▁爱	-2143
成分	-2144
矛盾	-2145
道理	-2146
1、	-2147
发育	-2148
四川	-2149
AM	-2150
哥哥	-2151
包装	-2152
心情	-2153
ill	-2154
工程师	-2155
厉害	-2156
cm	-2157
健身	-2158
否则	-2159
物流	-2160
更多的	-2161
44	-2162
多次	-2163
大陆	-2164
红色	-2165
合肥	-2166
”(	-2167
在中国	-2168
提示	-2169
的重要	-2170
涉及	-2171
而不	-2172
主管	-2173
读者	-2174
宇宙	-2175
独特	-2176
优质	-2177
工商	-2178
听到	-2179
来到	-2180
呵呵	-2181
贡献	-2182
▁关于	-2183
前的	-2184
和你	-2185
时尚	-2186
真正的	-2187
毫米	-2188
呼吸	-2189
之外	-2190
细节	-2191
葡萄	-2192
玻璃	-2193
吃的	-2194
就好	-2195
▁下	-2196
采纳	-2197
▁k	-2198
▁e	-2199
期的	-2200
密码	-2201
想象	-2202
··	-2203
主席	-2204
难以	-2205
还没有	-2206
休息	-2207
不需要	-2208
05	-2209
白色	-2210
2005	-2211
依法	-2212
机场	-2213
▁做	-2214
舒服	-2215
作家	-2216
要是	-2217
爱好者	-2218
一位	-2219
干净	-2220
买的	-2221
氧化	-2222
军事	-2223
法院	-2224
▁4、	-2225
▁我觉得	-2226
干部	-2227
维修	-2228
AR	-2229
皇帝	-2230
3,	-2231
基于	-2232
就可以了	-2233
▁根据	-2234
国外	-2235
95	-2236
刚刚	-2237
▁游戏	-2238
路上	-2239
当年	-2240
▁我想	-2241
展示	-2242
安徽	-2243
那么多	-2244
▁其中	-2245
▁Y	-2246
的朋友	-2247
破坏	-2248
了吗	-2249
▁它	-2250
副主任	-2251
增强	-2252
____	-2253
▁如果你	-2254
▁就是	-2255
讨厌	-2256
法规	-2257
另一个	-2258
3、	-2259
体重	-2260
挑战	-2261
播放	-2262
举办	-2263
婚姻	-2264
规律	-2265
发动机	-2266
之中	-2267
对比	-2268
76	-2269
高校	-2270
画面	-2271
ass	-2272
ml	-2273
如下	-2274
别人的	-2275
世界上	-2276
哲学	-2277
房间	-2278
居民	-2279
工作的	-2280
对手	-2281
不敢	-2282
老婆	-2283
自治	-2284
反映	-2285
和他	-2286
-10	-2287
给予	-2288
婴儿	-2289
面试	-2290
见过	-2291
获奖	-2292
比较好	-2293
idu	-2294
镜头	-2295
奶粉	-2296
黑色	-2297
突破	-2298
地图	-2299
%;	-2300
男孩	-2301
ine	-2302
▁出	-2303
听说	-2304
大了	-2305
公主	-2306
调节	-2307
是最	-2308
zh	-2309
▁目前	-2310
分数	-2311
成都	-2312
实习	-2313
不可能	-2314
品种	-2315
对我	-2316
98	-2317
初中	-2318
2020	-2319
服装	-2320
利润	-2321
性质	-2322
▁很	-2323
味道	-2324
▁正	-2325
se	-2326
07	-2327
能不能	-2328
跟我	-2329
球队	-2330
优化	-2331
允许	-2332
不出	-2333
的说	-2334
打电话	-2335
高度	-2336
▁佛	-2337
赚钱	-2338
使得	-2339
硬件	-2340
重视	-2341
就好了	-2342
熟悉	-2343
防止	-2344
ong	-2345
▁不是	-2346
策划	-2347
旅行	-2348
国的	-2349
评估	-2350
不一样	-2351
权利	-2352
▁·	-2353
▁不要	-2354
职工	-2355
律师	-2356
回去	-2357
流行	-2358
水果	-2359
天的	-2360
火车	-2361
纪念	-2362
装修	-2363
可以在	-2364
住房	-2365
人体	-2366
森林	-2367
ao	-2368
害怕	-2369
离婚	-2370
彻底	-2371
天然	-2372
真的很	-2373
腾讯	-2374
流程	-2375
帮我	-2376
生存	-2377
开了	-2378
▁18	-2379
▁st	-2380
ER	-2381
ra	-2382
难道	-2383
的作用	-2384
共和国	-2385
月份	-2386
魔法	-2387
打算	-2388
传说	-2389
突出	-2390
▁到	-2391
实行	-2392
万人	-2393
家族	-2394
导弹	-2395
ob	-2396
阳光	-2397
孩子的	-2398
维生素	-2399
队伍	-2400
荣誉	-2401
四个	-2402
搭配	-2403
智慧	-2404
▁7.	-2405
01	-2406
数的	-2407
解放	-2408
看的	-2409
发的	-2410
辅助	-2411
▁你好	-2412
印度	-2413
生日	-2414
你在	-2415
42	-2416
模型	-2417
普遍	-2418
进行了	-2419
03	-2420
更是	-2421
06	-2422
色彩	-2423
设计师	-2424
始终	-2425
Hz	-2426
模拟	-2427
空中	-2428
能源	-2429
天津	-2430
nt	-2431
医师	-2432
小心	-2433
高手	-2434
收益	-2435
写作	-2436
更好的	-2437
互相	-2438
▁被	-2439
信用	-2440
或是	-2441
标志	-2442
后期	-2443
AN	-2444
的基本	-2445
案例	-2446
。”	-2447
驾驶	-2448
良好的	-2449
环保	-2450
伙伴	-2451
消化	-2452
笔记本	-2453
▁微	-2454
▁公司	-2455
43	-2456
创建	-2457
77	-2458
▁:	-2459
上网	-2460
上班	-2461
小孩	-2462
实验室	-2463
消失	-2464
自行	-2465
▁2010	-2466
型号	-2467
2004	-2468
:《	-2469
简单的	-2470
半年	-2471
▁is	-2472
保存	-2473
接近	-2474
脂肪	-2475
辈子	-2476
我会	-2477
集体	-2478
ell	-2479
浏览	-2480
120	-2481
▁St	-2482
同意	-2483
ud	-2484
人士	-2485
▁第六	-2486
SB	-2487
俱乐	-2488
适当	-2489
▁还	-2490
党委	-2491
▁刘	-2492
重量	-2493
设定	-2494
包含	-2495
推动	-2496
▁然而	-2497
无线	-2498
▁现代	-2499
up	-2500
构成	-2501
覆盖	-2502
马上	-2503
▁i	-2504
装饰	-2505
强烈	-2506
性和	-2507
多少钱	-2508
很好的	-2509
例子	-2510
分配	-2511
紧张	-2512
指挥	-2513
▁海	-2514
俱乐部	-2515
留下	-2516
锻炼	-2517
了个	-2518
▁学校	-2519
公安	-2520
不大	-2521
病情	-2522
代码	-2523
上下	-2524
加油	-2525
不对	-2526
▁北京	-2527
回忆	-2528
her	-2529
知名	-2530
完了	-2531
身高	-2532
告诉我	-2533
ID	-2534
▁把	-2535
期待	-2536
一生	-2537
蒙古	-2538
他在	-2539
物的	-2540
湖北	-2541
才会	-2542
犯罪	-2543
丰富的	-2544
依据	-2545
are	-2546
站在	-2547
▁水	-2548
ore	-2549
▁原	-2550
咖啡	-2551
影片	-2552
AD	-2553
两个人	-2554
▁产品	-2555
黄金	-2556
主演	-2557
他说	-2558
反而	-2559
一只	-2560
居住	-2561
话题	-2562
失去	-2563
室内	-2564
▁又	-2565
这就是	-2566
给了	-2567
你自己	-2568
做出	-2569
基因	-2570
损失	-2571
居然	-2572
差异	-2573
▁明	-2574
baidu	-2575
上市	-2576
同事	-2577
72	-2578
怀疑	-2579
形态	-2580
ub	-2581
ard	-2582
偶尔	-2583
敌人	-2584
肌肉	-2585
地下	-2586
男友	-2587
论坛	-2588
楼主	-2589
eb	-2590
外国	-2591
称号	-2592
两次	-2593
150	-2594
预防	-2595
修复	-2596
事故	-2597
岁的	-2598
也可	-2599
省级	-2600
最多	-2601
59	-2602
早上	-2603
股份	-2604
▁v	-2605
的关系	-2606
qu	-2607
秘密	-2608
吃了	-2609
举行	-2610
以上的	-2611
尊重	-2612
▁阿	-2613
尽管	-2614
▁Ch	-2615
什么时候	-2616
每个人	-2617
人数	-2618
图册	-2619
容量	-2620
男性	-2621
承认	-2622
看来	-2623
擅长	-2624
▁第一节	-2625
人都	-2626
国民	-2627
检验	-2628
最新	-2629
命运	-2630
等待	-2631
忘记	-2632
现任	-2633
04	-2634
ak	-2635
策略	-2636
▁2019	-2637
这么多	-2638
学者	-2639
▁第二节	-2640
公元	-2641
器的	-2642
指标	-2643
示范	-2644
▁白	-2645
想想	-2646
竟然	-2647
照顾	-2648
的产品	-2649
缺乏	-2650
---	-2651
▁周	-2652
清晰	-2653
近代	-2654
建议你	-2655
就没	-2656
复习	-2657
财富	-2658
上有	-2659
你好	-2660
4)	-2661
西方	-2662
风景	-2663
不见	-2664
区的	-2665
时刻	-2666
场景	-2667
88	-2668
小米	-2669
意外	-2670
文献	-2671
查询	-2672
删除	-2673
▁陈	-2674
其他的	-2675
是对	-2676
是很	-2677
首次	-2678
一体	-2679
首歌	-2680
联赛	-2681
制的	-2682
文艺	-2683
诊断	-2684
57	-2685
问我	-2686
▁女	-2687
▁路	-2688
广场	-2689
ww	-2690
进口	-2691
sh	-2692
的水	-2693
sp	-2694
ll	-2695
看起来	-2696
广大	-2697
▁个人	-2698
自信	-2699
预算	-2700
▁re	-2701
回复	-2702
心态	-2703
毫无	-2704
宣布	-2705
男女	-2706
是要	-2707
动漫	-2708
▁&	-2709
影视	-2710
云南	-2711
孤独	-2712
蔬菜	-2713
的美	-2714
作战	-2715
ng	-2716
探索	-2717
子里	-2718
难度	-2719
顺利	-2720
PC	-2721
要么	-2722
灵魂	-2723
5]	-2724
动态	-2725
渠道	-2726
博物	-2727
法定	-2728
警察	-2729
▁这样	-2730
▁r	-2731
69	-2732
▁您	-2733
意味	-2734
发射	-2735
推出	-2736
67	-2737
舞蹈	-2738
的研究	-2739
强调	-2740
也在	-2741
关心	-2742
党员	-2743
正常的	-2744
公布	-2745
确认	-2746
▁2012	-2747
老年	-2748
▁2011	-2749
不良	-2750
▁2009	-2751
异常	-2752
中有	-2753
引导	-2754
他人	-2755
个性	-2756
一级	-2757
功率	-2758
频率	-2759
将军	-2760
IT	-2761
第六	-2762
ive	-2763
简直	-2764
年来	-2765
哈哈哈哈	-2766
他是	-2767
公交	-2768
小组	-2769
民间	-2770
块钱	-2771
岗位	-2772
边的	-2773
跟着	-2774
的一些	-2775
ant	-2776
▁大家	-2777
部的	-2778
》,《	-2779
了很多	-2780
局长	-2781
特性	-2782
1.5	-2783
妹妹	-2784
报道	-2785
胜利	-2786
导师	-2787
是可以	-2788
hot	-2789
一旦	-2790
▁清	-2791
一致	-2792
营业	-2793
一段	-2794
▁j	-2795
鼓励	-2796
书法	-2797
缺点	-2798
▁for	-2799
生气	-2800
人工	-2801
积累	-2802
▁[4]	-2803
”“	-2804
三角	-2805
▁宋	-2806
设立	-2807
层次	-2808
会的	-2809
一代	-2810
测量	-2811
节奏	-2812
直播	-2813
就行了	-2814
会在	-2815
股票	-2816
不去	-2817
▁南	-2818
一开始	-2819
长时间	-2820
最低	-2821
单纯	-2822
球员	-2823
血管	-2824
的我	-2825
留学	-2826
中国的	-2827
明的	-2828
显得	-2829
爱你	-2830
孕妇	-2831
温柔	-2832
产品的	-2833
装置	-2834
▁别	-2835
的内容	-2836
自主	-2837
仅仅	-2838
生活的	-2839
官网	-2840
ight	-2841
广播	-2842
ep	-2843
所谓的	-2844
起了	-2845
大神	-2846
▁内容	-2847
企业的	-2848
立即	-2849
经济学	-2850
人均	-2851
几次	-2852
反对	-2853
趋势	-2854
陕西	-2855
弟弟	-2856
研究所	-2857
强化	-2858
利于	-2859
景观	-2860
车辆	-2861
少数	-2862
转移	-2863
审核	-2864
街道	-2865
公务	-2866
02	-2867
鸡蛋	-2868
MP	-2869
一名	-2870
www	-2871
舞台	-2872
克斯	-2873
CPU	-2874
ff	-2875
利亚	-2876
ry	-2877
篮球	-2878
▁2016	-2879
动的	-2880
-08	-2881
2003	-2882
含量	-2883
专科	-2884
说不	-2885
很容易	-2886
作者是	-2887
的就是	-2888
▁12	-2889
分泌	-2890
▁电	-2891
看你	-2892
前面	-2893
AS	-2894
大众	-2895
性价	-2896
含有	-2897
成年	-2898
很高	-2899
▁于是	-2900
共产	-2901
一场	-2902
现有	-2903
和谐	-2904
函数	-2905
看过	-2906
志愿	-2907
▁黄	-2908
什么样的	-2909
深刻	-2910
ON	-2911
从小	-2912
▁那么	-2913
停止	-2914
网友	-2915
房产	-2916
秘书	-2917
ity	-2918
注重	-2919
▁打	-2920
转换	-2921
无限	-2922
生育	-2923
保健	-2924
杭州	-2925
360	-2926
中共	-2927
芯片	-2928
鉴定	-2929
后悔	-2930
▁16	-2931
评为	-2932
东南	-2933
链接	-2934
下午	-2935
相处	-2936
ne	-2937
▁国	-2938
宗教	-2939
混合	-2940
被人	-2941
54	-2942
得了	-2943
工厂	-2944
此时	-2945
佛教	-2946
▁还是	-2947
3000	-2948
▁(2)	-2949
周期	-2950
思路	-2951
是为了	-2952
级的	-2953
图书馆	-2954
题目	-2955
教练	-2956
除非	-2957
各地	-2958
-1	-2959
江西	-2960
▁此外	-2961
福建	-2962
敏感	-2963
在这里	-2964
恐怖	-2965
52	-2966
本质	-2967
版的	-2968
iPhone	-2969
出版的	-2970
的同时	-2971
ack	-2972
我妈	-2973
考生	-2974
-12	-2975
可以用	-2976
做什么	-2977
演出	-2978
性价比	-2979
等于	-2980
造型	-2981
客观	-2982
▁喜欢	-2983
汉语	-2984
整理	-2985
qq	-2986
▁日	-2987
共有	-2988
山西	-2989
有趣	-2990
~~~~	-2991
方的	-2992
MB	-2993
地铁	-2994
同一	-2995
很大的	-2996
存储	-2997
有问题	-2998
▁2017	-2999
,199	-3000
是中国	-3001
没人	-3002
解答	-3003
的能力	-3004
浪费	-3005
▁2015	-3006
end	-3007
老人	-3008
收费	-3009
▁、	-3010
改造	-3011
但我	-3012
app	-3013
奇怪	-3014
记载	-3015
ice	-3016
▁8.	-3017
该怎么办	-3018
II	-3019
你说	-3020
斯特	-3021
接着	-3022
)(	-3023
▁希望	-3024
-11	-3025
6]	-3026
是谁	-3027
歌词	-3028
10.	-3029
-09	-3030
键盘	-3031
气候	-3032
服务器	-3033
▁2014	-3034
很久	-3035
74	-3036
找个	-3037
ink	-3038
让她	-3039
▁2008	-3040
使用的	-3041
女的	-3042
的人生	-3043
提醒	-3044
决赛	-3045
并在	-3046
博物馆	-3047
告诉你	-3048
充电	-3049
电视台	-3050
奶奶	-3051
▁有没有	-3052
▁2013	-3053
▁;	-3054
随时	-3055
ED	-3056
事项	-3057
的外	-3058
玩的	-3059
▁be	-3060
提问	-3061
继承	-3062
免疫	-3063
我都	-3064
路由	-3065
配套	-3066
义务	-3067
合格	-3068
识别	-3069
众多	-3070
重复	-3071
地点	-3072
ith	-3073
错了	-3074
取消	-3075
军队	-3076
就没有	-3077
拿到	-3078
表情	-3079
▁通过	-3080
言情	-3081
不开	-3082
之下	-3083
彼此	-3084
对外	-3085
our	-3086
百分	-3087
报名	-3088
肚子	-3089
冲突	-3090
不算	-3091
kg	-3092
让自己	-3093
忘了	-3094
管理局	-3095
妻子	-3096
ly	-3097
扩大	-3098
必然	-3099
可见	-3100
常务	-3101
我自己	-3102
反复	-3103
获取	-3104
每一个	-3105
▁若	-3106
63	-3107
有可能	-3108
长城	-3109
礼物	-3110
线的	-3111
真心	-3112
男子	-3113
事务	-3114
去看	-3115
档案	-3116
精彩	-3117
ers	-3118
强大	-3119
ord	-3120
五年	-3121
奖励	-3122
一份	-3123
IC	-3124
危机	-3125
休闲	-3126
录取	-3127
障碍	-3128
物品	-3129
亚洲	-3130
学校的	-3131
纤维	-3132
维持	-3133
找不到	-3134
民主	-3135
不说	-3136
收到	-3137
▁当时	-3138
▁可是	-3139
案件	-3140
int	-3141
一直在	-3142
和平	-3143
放心	-3144
编制	-3145
到达	-3146
但是我	-3147
一本	-3148
讲述	-3149
iv	-3150
某个	-3151
去医院	-3152
大约	-3153
合成	-3154
全市	-3155
确保	-3156
加速	-3157
========	-3158
▁你们	-3159
处理器	-3160
胎儿	-3161
▁(1)	-3162
给她	-3163
尴尬	-3164
▁等	-3165
两天	-3166
超越	-3167
情节	-3168
许可	-3169
饰演	-3170
单词	-3171
舒适	-3172
出现了	-3173
▁0.	-3174
睡眠	-3175
坦克	-3176
神秘	-3177
的有	-3178
觉得自己	-3179
详情	-3180
地面	-3181
团体	-3182
掉了	-3183
一部	-3184
的意思	-3185
对应	-3186
办学	-3187
村民	-3188
保留	-3189
▁第三节	-3190
▁会	-3191
城镇	-3192
的手	-3193
地上	-3194
ast	-3195
的要求	-3196
提供了	-3197
虚拟	-3198
观念	-3199
ort	-3200
四年	-3201
早期	-3202
女友	-3203
心理学	-3204
西北	-3205
妹子	-3206
宠物	-3207
▁其他	-3208
生活中	-3209
华为	-3210
心中	-3211
公务员	-3212
放入	-3213
去做	-3214
人大	-3215
决策	-3216
想着	-3217
女子	-3218
记者	-3219
合法	-3220
消耗	-3221
荣获	-3222
生理	-3223
务院	-3224
式的	-3225
暂时	-3226
意的	-3227
认可	-3228
TV	-3229
看法	-3230
课题	-3231
毕业生	-3232
人和	-3233
▁基本	-3234
牛奶	-3235
摄像	-3236
校长	-3237
给自己	-3238
▁第七	-3239
出发	-3240
优点	-3241
做法	-3242
产权	-3243
见到	-3244
正是	-3245
专利	-3246
各项	-3247
相似	-3248
▁5、	-3249
DR	-3250
▁谢谢	-3251
73	-3252
故障	-3253
▁不知道	-3254
证据	-3255
顾客	-3256
常常	-3257
多数	-3258
水的	-3259
▁分	-3260
爆炸	-3261
靠谱	-3262
穿越	-3263
进攻	-3264
耳机	-3265
清洁	-3266
了一下	-3267
感动	-3268
群体	-3269
▁怎样	-3270
一片	-3271
发达	-3272
帮你	-3273
百姓	-3274
大量的	-3275
职责	-3276
年底	-3277
▁In	-3278
的学生	-3279
▁美国	-3280
一大	-3281
共享	-3282
号码	-3283
▁至于	-3284
黑暗	-3285
62	-3286
定期	-3287
▁太	-3288
上升	-3289
多久	-3290
ik	-3291
▁只要	-3292
您的	-3293
▁只	-3294
上述	-3295
偶像	-3296
班牙	-3297
53	-3298
地质	-3299
社会主义	-3300
相关的	-3301
在家	-3302
结局	-3303
生涯	-3304
我家	-3305
是以	-3306
(19	-3307
气的	-3308
三十	-3309
仔细	-3310
一段时间	-3311
过于	-3312
外面	-3313
................	-3314
2002	-3315
适用	-3316
位的	-3317
ue	-3318
还不	-3319
关闭	-3320
hotos	-3321
在这个	-3322
出场	-3323
pl	-3324
步骤	-3325
上课	-3326
一套	-3327
集成	-3328
▁利	-3329
的中	-3330
好友	-3331
住了	-3332
表明	-3333
St	-3334
作文	-3335
食用	-3336
为何	-3337
融合	-3338
:(	-3339
日在	-3340
又是	-3341
也不知道	-3342
▁六	-3343
稍微	-3344
收集	-3345
意味着	-3346
保修	-3347
▁本书	-3348
肿瘤	-3349
访问	-3350
▁加	-3351
职务	-3352
线路	-3353
西南	-3354
实话	-3355
,(	-3356
去找	-3357
招生	-3358
命令	-3359
41	-3360
还是要	-3361
夏天	-3362
辐射	-3363
主板	-3364
你想	-3365
长得	-3366
语文	-3367
网页	-3368
有钱	-3369
交换	-3370
苏联	-3371
是真的	-3372
▁河北	-3373
▁今天	-3374
帝国	-3375
善良	-3376
聪明	-3377
强度	-3378
昨天	-3379
如今	-3380
付出	-3381
▁11	-3382
:2	-3383
在此	-3384
可靠	-3385
理工	-3386
哪怕	-3387
因为我	-3388
文物	-3389
差距	-3390
西安	-3391
看到了	-3392
时光	-3393
是没有	-3394
4、	-3395
人民共和国	-3396
大赛	-3397
▁15	-3398
各自	-3399
这种情况	-3400
眼镜	-3401
总体	-3402
护理	-3403
》:“	-3404
的样子	-3405
疯狂	-3406
▁The	-3407
得到了	-3408
部长	-3409
千米	-3410
都市	-3411
把我	-3412
会长	-3413
你不	-3414
董事	-3415
▁由	-3416
ust	-3417
ign	-3418
落实	-3419
并非	-3420
这部	-3421
不动	-3422
人民币	-3423
战士	-3424
到现在	-3425
第七	-3426
我现在	-3427
分的	-3428
ame	-3429
走向	-3430
进了	-3431
ook	-3432
海洋	-3433
打击	-3434
视觉	-3435
衍生	-3436
没事	-3437
▁大学	-3438
力于	-3439
AB	-3440
地面积	-3441
违法	-3442
你能	-3443
我很	-3444
毕业于	-3445
国家级	-3446
则是	-3447
▁近	-3448
一路	-3449
体制	-3450
百科	-3451
会被	-3452
▁me	-3453
里面的	-3454
社交	-3455
爆发	-3456
依旧	-3457
当初	-3458
防御	-3459
在一个	-3460
究竟	-3461
的行为	-3462
著作	-3463
ain	-3464
每一	-3465
短信	-3466
相机	-3467
▁刚	-3468
简称	-3469
age	-3470
▁+	-3471
活着	-3472
大大	-3473
大家都	-3474
。?	-3475
审计	-3476
感冒	-3477
世界的	-3478
爷爷	-3479
得知	-3480
为人	-3481
打印	-3482
▁on	-3483
编写	-3484
病人	-3485
宝贝	-3486
(2)	-3487
的可能	-3488
▁也	-3489
女主	-3490
夫妻	-3491
ava	-3492
美好	-3493
逐步	-3494
信任	-3495
坐在	-3496
骑士	-3497
▁单	-3498
过敏	-3499
出来了	-3500
种类	-3501
蛋白质	-3502
血液	-3503
户口	-3504
只会	-3505
场所	-3506
家具	-3507
年前	-3508
ps	-3509
对话	-3510
把握	-3511
电路	-3512
▁将	-3513
▁平	-3514
良好	-3515
强大的	-3516
分辨	-3517
境内	-3518
86	-3519
队友	-3520
头的	-3521
之处	-3522
一人	-3523
姓名	-3524
贵的	-3525
热情	-3526
要有	-3527
委托	-3528
对待	-3529
5000	-3530
:30	-3531
▁东	-3532
无数	-3533
一部分	-3534
▁学	-3535
物业	-3536
监管	-3537
前往	-3538
一块	-3539
-2	-3540
压缩	-3541
环节	-3542
跟你	-3543
招聘	-3544
温暖	-3545
▁这里	-3546
在哪里	-3547
的那种	-3548
电力	-3549
51	-3550
财产	-3551
的设计	-3552
▁生	-3553
****	-3554
ld	-3555
传奇	-3556
的多	-3557
十章	-3558
无人	-3559
室友	-3560
ect	-3561
界面	-3562
路线	-3563
监测	-3564
旁边	-3565
OL	-3566
成为了	-3567
货币	-3568
知道了	-3569
改进	-3570
热爱	-3571
即将	-3572
通讯	-3573
发出	-3574
带来的	-3575
恶心	-3576
奥运	-3577
公益	-3578
当代	-3579
防治	-3580
更有	-3581
合并	-3582
选手	-3583
▁两	-3584
▁建议	-3585
ee	-3586
复制	-3587
支撑	-3588
这件事	-3589
黄色	-3590
召唤	-3591
门口	-3592
欣赏	-3593
客服	-3594
The	-3595
鼠标	-3596
▁内	-3597
电压	-3598
该怎么	-3599
复合	-3600
7]	-3601
▁作者	-3602
▁2007	-3603
叫做	-3604
▁男	-3605
或者是	-3606
4,	-3607
幼儿园	-3608
期刊	-3609
餐厅	-3610
荣耀	-3611
高效	-3612
▁双	-3613
原料	-3614
几十	-3615
花钱	-3616
身份证	-3617
我还	-3618
本地	-3619
网易	-3620
用品	-3621
抑郁	-3622
手续	-3623
2.5	-3624
▁自己	-3625
引起的	-3626
小时候	-3627
▁除了	-3628
较大	-3629
更换	-3630
的天	-3631
有机	-3632
购物	-3633
精灵	-3634
随后	-3635
get	-3636
▁上海	-3637
航天	-3638
重要的是	-3639
第二天	-3640
▁追	-3641
认知	-3642
▁9.	-3643
预测	-3644
同志	-3645
不是很	-3646
单独	-3647
图像	-3648
书籍	-3649
大于	-3650
▁2006	-3651
呈现	-3652
▁光	-3653
北方	-3654
证券	-3655
一件	-3656
结论	-3657
辅导	-3658
广西	-3659
车的	-3660
展现	-3661
就开始	-3662
▁it	-3663
说法	-3664
out	-3665
女孩子	-3666
pg	-3667
妇女	-3668
深度	-3669
优秀的	-3670
山市	-3671
指数	-3672
这类	-3673
和她	-3674
国务院	-3675
让我们	-3676
和社会	-3677
转化	-3678
手动	-3679
的世界	-3680
ove	-3681
规定的	-3682
没有什么	-3683
关节	-3684
出血	-3685
服用	-3686
见面	-3687
收录	-3688
赶紧	-3689
人为	-3690
2001	-3691
名单	-3692
产生的	-3693
爸妈	-3694
景区	-3695
。(	-3696
间的	-3697
玩游戏	-3698
统治	-3699
互动	-3700
制品	-3701
禁止	-3702
优惠	-3703
那时候	-3704
通道	-3705
和其他	-3706
zhid	-3707
▁杨	-3708
菩萨	-3709
▁[5]	-3710
记住	-3711
海军	-3712
5,	-3713
zhidao	-3714
的技术	-3715
适用于	-3716
的三	-3717
▁评论	-3718
授权	-3719
布局	-3720
一百	-3721
ES	-3722
的名字	-3723
一会	-3724
专注	-3725
的老	-3726
Ch	-3727
这款	-3728
``	-3729
最早	-3730
面临	-3731
选项	-3732
钢琴	-3733
可以去	-3734
丈夫	-3735
对自己	-3736
进程	-3737
了他	-3738
司法	-3739
面上	-3740
塑料	-3741
低于	-3742
好吗	-3743
护肤	-3744
想起	-3745
常规	-3746
带有	-3747
某种	-3748
好处	-3749
12.	-3750
单元	-3751
高兴	-3752
的历史	-3753
▁德	-3754
ug	-3755
把自己	-3756
授予	-3757
巨大	-3758
出现在	-3759
分离	-3760
形容	-3761
十二章	-3762
问问	-3763
▁红	-3764
相当于	-3765
开启	-3766
释放	-3767
下列	-3768
卫星	-3769
变成了	-3770
▁花	-3771
ire	-3772
正确的	-3773
,198	-3774
▁*	-3775
代表人	-3776
魅力	-3777
ov	-3778
到你	-3779
幻想	-3780
罗马	-3781
个体	-3782
将其	-3783
化工	-3784
MA	-3785
一遍	-3786
答应	-3787
十一章	-3788
开机	-3789
从业	-3790
整合	-3791
师范大学	-3792
ile	-3793
石油	-3794
协助	-3795
的过程	-3796
Windows	-3797
实体	-3798
的机会	-3799
国内外	-3800
感兴趣	-3801
二级	-3802
常用	-3803
也不能	-3804
总统	-3805
这两	-3806
住宅	-3807
依靠	-3808
一看	-3809
条例	-3810
规格	-3811
主人	-3812
,2	-3813
▁空	-3814
说什么	-3815
存在的	-3816
种子	-3817
相应的	-3818
有一天	-3819
人力	-3820
途径	-3821
西班牙	-3822
效应	-3823
建成	-3824
教程	-3825
生意	-3826
▁曾	-3827
正规	-3828
灵活	-3829
ian	-3830
斯坦	-3831
不容易	-3832
体会	-3833
气质	-3834
那是	-3835
养殖	-3836
▁国家	-3837
创意	-3838
概率	-3839
uc	-3840
院长	-3841
▁月	-3842
▁假	-3843
纪录	-3844
加快	-3845
是从	-3846
▁以上	-3847
电信	-3848
年轻人	-3849
▁作	-3850
ank	-3851
范围内	-3852
巨大的	-3853
节能	-3854
超市	-3855
公斤	-3856
▁黑	-3857
法定代表人	-3858
bl	-3859
ont	-3860
县城	-3861
▁真	-3862
上学	-3863
的长	-3864
人群	-3865
太平	-3866
主管部门	-3867
农户	-3868
民国	-3869
圆形	-3870
税务	-3871
看出	-3872
威胁	-3873
▁心	-3874
部位	-3875
不可以	-3876
我没	-3877
的专业	-3878
精力	-3879
透明	-3880
干燥	-3881
粮食	-3882
▁吉	-3883
ome	-3884
差别	-3885
明天	-3886
流动	-3887
中药	-3888
离子	-3889
的第一	-3890
考核	-3891
可怕	-3892
贵州	-3893
都不会	-3894
这位	-3895
共产党	-3896
外科	-3897
顾问	-3898
商标	-3899
阳市	-3900
模块	-3901
面向	-3902
排卵	-3903
数据库	-3904
更为	-3905
▁?	-3906
出门	-3907
运动员	-3908
电动	-3909
赔偿	-3910
大战	-3911
平方公里	-3912
前后	-3913
▁宝	-3914
▁七	-3915
治理	-3916
激素	-3917
也就是说	-3918
去年	-3919
经纪	-3920
io	-3921
11.	-3922
牺牲	-3923
扩展	-3924
▁宝宝	-3925
账号	-3926
产量	-3927
▁可能	-3928
危害	-3929
排除	-3930
三国	-3931
在大	-3932
的孩子	-3933
编剧	-3934
办事	-3935
远程	-3936
那就是	-3937
AL	-3938
激光	-3939
▁万	-3940
售后	-3941
代谢	-3942
一流	-3943
▁该村	-3944
96	-3945
国产	-3946
要注意	-3947
因而	-3948
其次	-3949
养老	-3950
汉族	-3951
公平	-3952
新鲜	-3953
做过	-3954
出版的图书	-3955
利率	-3956
▁第八	-3957
哈哈哈	-3958
又有	-3959
说过	-3960
身材	-3961
▁文	-3962
▁更多	-3963
新生	-3964
颜值	-3965
答主	-3966
语音	-3967
辽宁	-3968
成人	-3969
▁附	-3970
ace	-3971
干嘛	-3972
尼亚	-3973
一把	-3974
年级	-3975
朋友圈	-3976
们的	-3977
自治区	-3978
萝卜	-3979
中国人	-3980
凤凰	-3981
▁发	-3982
从此	-3983
合金	-3984
登陆	-3985
频道	-3986
无论是	-3987
专用	-3988
▁你的	-3989
子宫	-3990
一定会	-3991
概述	-3992
抑制	-3993
▁......	-3994
采购	-3995
依赖	-3996
队长	-3997
买个	-3998
▁(3)	-3999
的吗	-4000
我有	-4001
▁华	-4002
改为	-4003
我还是	-4004
监控	-4005
适量	-4006
百万	-4007
等人	-4008
没有任何	-4009
留在	-4010
科普	-4011
▁最近	-4012
长大	-4013
为什么要	-4014
▁导演	-4015
比亚	-4016
辛苦	-4017
著名的	-4018
政协	-4019
▁http	-4020
广东省	-4021
回归	-4022
疼痛	-4023
故意	-4024
一句话	-4025
经营范围	-4026
是一款	-4027
报考	-4028
奋斗	-4029
显著	-4030
年纪	-4031
背后	-4032
拿着	-4033
中华人民共和国	-4034
的一切	-4035
)》	-4036
ure	-4037
对他	-4038
考察	-4039
的游戏	-4040
pr	-4041
男的	-4042
In	-4043
现状	-4044
发生了	-4045
如果有	-4046
日起	-4047
61	-4048
▁按	-4049
71	-4050
均匀	-4051
▁wh	-4052
ib	-4053
社团	-4054
一款	-4055
理财	-4056
交往	-4057
战场	-4058
国家的	-4059
谈恋爱	-4060
杀人	-4061
5)	-4062
全身	-4063
所得	-4064
强制	-4065
就不会	-4066
学生的	-4067
浪漫	-4068
的基础上	-4069
较为	-4070
火箭	-4071
渐渐	-4072
未来的	-4073
:3	-4074
海外	-4075
同步	-4076
一半	-4077
的确	-4078
原本	-4079
美容	-4080
教室	-4081
像素	-4082
,3	-4083
成功的	-4084
受伤	-4085
一周	-4086
在哪	-4087
子女	-4088
指出	-4089
典型	-4090
说说	-4091
在你	-4092
形成了	-4093
药品	-4094
ear	-4095
hip	-4096
表白	-4097
▁随着	-4098
词汇	-4099
的效果	-4100
ost	-4101
单身	-4102
89	-4103
凭借	-4104
看不	-4105
安慰	-4106
;(	-4107
编程	-4108
太大	-4109
OK	-4110
审查	-4111
主流	-4112
的发	-4113
纠结	-4114
的结果	-4115
遗传	-4116
也好	-4117
南方	-4118
▁支持	-4119
PP	-4120
ew	-4121
这时	-4122
便是	-4123
细菌	-4124
这一点	-4125
积分	-4126
认定	-4127
性别	-4128
不停	-4129
▁古	-4130
待遇	-4131
山区	-4132
三大	-4133
有效的	-4134
心脏	-4135
wh	-4136
",	-4137
三星	-4138
大学的	-4139
对面	-4140
▁八	-4141
拍照	-4142
++	-4143
兼职	-4144
”;	-4145
显然	-4146
不久	-4147
顺序	-4148
,1	-4149
人间	-4150
高端	-4151
英寸	-4152
级别	-4153
▁病情	-4154
原始	-4155
就很	-4156
lass	-4157
年在	-4158
最初	-4159
扮演	-4160
店铺	-4161
脾气	-4162
副书记	-4163
net	-4164
这两个	-4165
贯彻	-4166
那一	-4167
▁武	-4168
权威	-4169
领先	-4170
十三章	-4171
ef	-4172
教育部	-4173
遇见	-4174
邮箱	-4175
全县	-4176
小区	-4177
全省	-4178
个小时	-4179
html	-4180
乐队	-4181
研究院	-4182
大地	-4183
美食	-4184
cn	-4185
二手	-4186
我知道	-4187
的爱	-4188
联想	-4189
吐槽	-4190
▁只有	-4191
热水	-4192
江湖	-4193
周边	-4194
得很	-4195
设计的	-4196
补偿	-4197
之路	-4198
优先	-4199
神奇	-4200
为止	-4201
获得了	-4202
可惜	-4203
恐惧	-4204
当中	-4205
显示器	-4206
建造	-4207
临时	-4208
游泳	-4209
消除	-4210
▁10.	-4211
传输	-4212
在读	-4213
通用	-4214
▁唐	-4215
海拔	-4216
微笑	-4217
说你	-4218
ha	-4219
快递	-4220
隐藏	-4221
科学技术	-4222
▁2005	-4223
不一定	-4224
去世	-4225
是否有	-4226
基层	-4227
我认为	-4228
收获	-4229
的车	-4230
密度	-4231
司机	-4232
轨道	-4233
信仰	-4234
承受	-4235
▁连	-4236
ev	-4237
电流	-4238
坏了	-4239
跟他	-4240
天使	-4241
电子商务	-4242
RO	-4243
起点	-4244
重的	-4245
违反	-4246
▁现	-4247
科技有限公司	-4248
股份有限公司	-4249
造成的	-4250
批评	-4251
西部	-4252
入门	-4253
冬天	-4254
第八	-4255
肌肤	-4256
花园	-4257
将会	-4258
配音	-4259
前期	-4260
～～	-4261
▁北	-4262
就被	-4263
这句话	-4264
▁林	-4265
IM	-4266
▁●	-4267
线上	-4268
相反	-4269
700	-4270
貌似	-4271
▁应该	-4272
操作系统	-4273
大力	-4274
象征	-4275
无奈	-4276
致力于	-4277
审批	-4278
将来	-4279
入选	-4280
代表大会	-4281
遗憾	-4282
快的	-4283
设有	-4284
手指	-4285
数码	-4286
入了	-4287
来讲	-4288
▁手机	-4289
法的	-4290
-01	-4291
分开	-4292
血压	-4293
当前	-4294
EC	-4295
绘画	-4296
的信息	-4297
明明	-4298
的钱	-4299
不及	-4300
南北	-4301
事业单位	-4302
所属	-4303
历史上	-4304
死的	-4305
蓝色	-4306
在意	-4307
十四章	-4308
的管理	-4309
人事	-4310
病的	-4311
能否	-4312
ide	-4313
就这样	-4314
公式	-4315
福利	-4316
材质	-4317
效益	-4318
▁很多	-4319
更高	-4320
邮件	-4321
啊啊	-4322
新浪	-4323
放松	-4324
还好	-4325
融资	-4326
▁或者	-4327
没办法	-4328
?!	-4329
这也是	-4330
二次	-4331
提到	-4332
加热	-4333
明显的	-4334
天地	-4335
抱着	-4336
王者	-4337
;&	-4338
脸上	-4339
oy	-4340
无聊	-4341
▁都	-4342
窗口	-4343
激活	-4344
召开	-4345
牌子	-4346
~~~	-4347
竞赛	-4348
ina	-4349
大脑	-4350
定了	-4351
母乳	-4352
去的	-4353
他就	-4354
被称为	-4355
验证	-4356
便利	-4357
体内	-4358
边缘	-4359
▁您好	-4360
百年	-4361
仪器	-4362
乡村	-4363
传媒	-4364
厂商	-4365
陶瓷	-4366
外观	-4367
在校	-4368
吉林省	-4369
▁[6]	-4370
接下来	-4371
????	-4372
的声音	-4373
演技	-4374
怎样的体验	-4375
演唱会	-4376
冲击	-4377
180	-4378
农历	-4379
燃烧	-4380
的价格	-4381
穿着	-4382
iz	-4383
工作人员	-4384
TA	-4385
零售	-4386
最好是	-4387
里有	-4388
夫人	-4389
以外	-4390
第二次	-4391
作物	-4392
哈尔	-4393
寿命	-4394
次数	-4395
还原	-4396
和小	-4397
有用	-4398
气体	-4399
▁sh	-4400
▁菲	-4401
工人	-4402
1:	-4403
前提	-4404
为你	-4405
城区	-4406
三分	-4407
发现了	-4408
播出	-4409
▁企业	-4410
监察	-4411
天气	-4412
最为	-4413
真相	-4414
主体	-4415
很重要	-4416
摩托	-4417
▁吃	-4418
oh	-4419
▁例如	-4420
正好	-4421
功效	-4422
青岛	-4423
唱歌	-4424
权益	-4425
日语	-4426
上一	-4427
多么	-4428
ax	-4429
研制	-4430
作为一个	-4431
氛围	-4432
理性	-4433
姐妹	-4434
形状	-4435
不爱	-4436
肯定是	-4437
▁重	-4438
陌生	-4439
需要的	-4440
进化	-4441
上映	-4442
录音	-4443
浏览器	-4444
近代现代	-4445
残疾	-4446
之所以	-4447
书画	-4448
煤炭	-4449
抵押	-4450
厕所	-4451
地区的	-4452
带的	-4453
能在	-4454
喜爱	-4455
出国	-4456
税收	-4457
精品	-4458
传统的	-4459
▁梦	-4460
那天	-4461
》:	-4462
的歌	-4463
仪式	-4464
家庄	-4465
转变	-4466
事实上	-4467
市场的	-4468
加盟	-4469
就去	-4470
商家	-4471
兼容	-4472
西亚	-4473
引进	-4474
十五章	-4475
土壤	-4476
学家	-4477
只不过	-4478
ment	-4479
▁本人	-4480
清理	-4481
jpg	-4482
上午	-4483
道的	-4484
美好的	-4485
生成	-4486
不但	-4487
中小	-4488
亲戚	-4489
分割	-4490
CP	-4491
损伤	-4492
苏州	-4493
ark	-4494
▁Pro	-4495
新疆	-4496
框架	-4497
▁给	-4498
独特的	-4499
把他	-4500
围绕	-4501
▁不能	-4502
97	-4503
国王	-4504
负责人	-4505
三个月	-4506
不得不	-4507
失望	-4508
▁第一百	-4509
助理	-4510
在他	-4511
山东省	-4512
清华	-4513
的吧	-4514
意志	-4515
玉米	-4516
▁比	-4517
MS	-4518
▁库	-4519
颗粒	-4520
▁日本	-4521
▁Z	-4522
▁病情分析	-4523
平面	-4524
不下	-4525
VD	-4526
▁分享	-4527
男主	-4528
国有	-4529
返回	-4530
适宜	-4531
校区	-4532
act	-4533
暴力	-4534
市委	-4535
一辈子	-4536
▁何	-4537
厦门	-4538
这个人	-4539
人文	-4540
疑问	-4541
过度	-4542
高达	-4543
现金	-4544
构建	-4545
提交	-4546
立刻	-4547
懂得	-4548
不愿意	-4549
ge	-4550
应对	-4551
找到了	-4552
▁有些	-4553
才知道	-4554
跑步	-4555
最重要的	-4556
仿佛	-4557
等的	-4558
没有人	-4559
请求	-4560
方程	-4561
社会的	-4562
床上	-4563
我去	-4564
亲自	-4565
按摩	-4566
1.2	-4567
拿大	-4568
冒险	-4569
▁因	-4570
rom	-4571
安静	-4572
所需	-4573
慢性	-4574
▁我在	-4575
太多了	-4576
天赋	-4577
带领	-4578
发了	-4579
的位置	-4580
新技术	-4581
回头	-4582
87	-4583
异地	-4584
你有	-4585
帐号	-4586
作出	-4587
甘肃	-4588
▁名	-4589
打了	-4590
货物	-4591
高三	-4592
ime	-4593
王子	-4594
倾向	-4595
诗人	-4596
每日	-4597
随意	-4598
▁早	-4599
发明	-4600
一般的	-4601
ET	-4602
耕地	-4603
可以说	-4604
,10	-4605
难受	-4606
▁各	-4607
清洗	-4608
口腔	-4609
好听	-4610
▁使用	-4611
个人的	-4612
暑假	-4613
▁2000	-4614
十六章	-4615
户外	-4616
处罚	-4617
引擎	-4618
繁殖	-4619
高于	-4620
的书	-4621
生于	-4622
中介	-4623
智商	-4624
城乡	-4625
把它	-4626
▁2020	-4627
pe	-4628
▁跟	-4629
▁买	-4630
2.0	-4631
给人	-4632
▁赵	-4633
她说	-4634
的选择	-4635
我就是	-4636
战术	-4637
我个人	-4638
我和	-4639
一点点	-4640
争取	-4641
却是	-4642
县级	-4643
科目	-4644
不变	-4645
代替	-4646
玫瑰	-4647
EN	-4648
局部	-4649
要看	-4650
无关	-4651
执法	-4652
出版社出版的图书	-4653
综艺	-4654
喝酒	-4655
ash	-4656
少了	-4657
hiphotos	-4658
月的	-4659
默默	-4660
自动化	-4661
向上	-4662
换个	-4663
四大	-4664
▁来	-4665
没想到	-4666
▁▪	-4667
的电影	-4668
经营范围包括	-4669
110	-4670
APP	-4671
可以通过	-4672
说他	-4673
报警	-4674
戏剧	-4675
心灵	-4676
接收	-4677
平安	-4678
贝尔	-4679
建筑面积	-4680
厚的	-4681
用途	-4682
为一	-4683
符号	-4684
起码	-4685
在北京	-4686
地震	-4687
空军	-4688
婚礼	-4689
勇气	-4690
现代化	-4691
化妆品	-4692
二人	-4693
玩笑	-4694
随机	-4695
被评为	-4696
宗旨	-4697
又不	-4698
备注	-4699
XX	-4700
竞技	-4701
园林	-4702
CO	-4703
在一	-4704
年后	-4705
年间	-4706
阶级	-4707
较高	-4708
马克	-4709
文化的	-4710
煤矿	-4711
审美	-4712
的那个	-4713
乡镇	-4714
康复	-4715
看完	-4716
上来	-4717
理科	-4718
美女	-4719
▁具体	-4720
里斯	-4721
餐饮	-4722
▁第九	-4723
散热	-4724
)?	-4725
游戏的	-4726
极其	-4727
自杀	-4728
▁不会	-4729
250	-4730
▁2004	-4731
顺便	-4732
十七章	-4733
公司经营范围包括	-4734
900	-4735
的情	-4736
是多少	-4737
焦虑	-4738
种种	-4739
▁如果是	-4740
▁内容简介	-4741
利的	-4742
▁演员	-4743
怎么回事	-4744
信心	-4745
纽约	-4746
▁推荐	-4747
▁他的	-4748
处的	-4749
界的	-4750
传递	-4751
.....	-4752
法学	-4753
权力	-4754
管理工作	-4755
▁6、	-4756
长江	-4757
算法	-4758
▁更	-4759
1999	-4760
不该	-4761
承诺	-4762
水利	-4763
管理的	-4764
珍惜	-4765
是他	-4766
损害	-4767
▁100	-4768
内涵	-4769
缓解	-4770
龙江	-4771
▁房地产	-4772
的后	-4773
不必	-4774
分辨率	-4775
喜剧	-4776
▁14	-4777
▁17	-4778
iss	-4779
94	-4780
希腊	-4781
浓度	-4782
不高	-4783
关系的	-4784
下来的	-4785
不易	-4786
十字	-4787
登录	-4788
使命	-4789
话说	-4790
账户	-4791
出租	-4792
办的	-4793
ock	-4794
运气	-4795
最后一	-4796
三种	-4797
指南	-4798
把你	-4799
普及	-4800
新型	-4801
▁吴	-4802
我只	-4803
皇后	-4804
房价	-4805
一个小	-4806
CC	-4807
万吨	-4808
》?	-4809
▁每天	-4810
音频	-4811
联通	-4812
退休	-4813
价值观	-4814
▁30	-4815
都被	-4816
十几	-4817
另一方面	-4818
DN	-4819
-3	-4820
的很	-4821
的光	-4822
医药	-4823
机动	-4824
遗址	-4825
十八章	-4826
的最	-4827
出演	-4828
的了	-4829
▁有人	-4830
AK	-4831
青少年	-4832
初期	-4833
而成	-4834
▁实	-4835
欲望	-4836
▁pro	-4837
首发	-4838
▁九	-4839
源于	-4840
总部	-4841
发送	-4842
才有	-4843
手的	-4844
有关部门	-4845
人心	-4846
450	-4847
但在	-4848
做个	-4849
▁he	-4850
▁「	-4851
▁女生	-4852
标签	-4853
建立了	-4854
实的	-4855
拉斯	-4856
幸运	-4857
江南	-4858
热量	-4859
的特点	-4860
走到	-4861
这段	-4862
原子	-4863
写了	-4864
man	-4865
在了	-4866
干扰	-4867
指定	-4868
文科	-4869
▁简介	-4870
不清	-4871
不好的	-4872
烦恼	-4873
1500	-4874
到处	-4875
古典	-4876
小白	-4877
总收入	-4878
租赁	-4879
是什么意思	-4880
当你	-4881
紧急	-4882
卫视	-4883
注射	-4884
作曲	-4885
的人物	-4886
金额	-4887
▁卡	-4888
常见的	-4889
再说	-4890
眼里	-4891
的同学	-4892
▁山	-4893
履行	-4894
专项	-4895
资质	-4896
▁有什么	-4897
出现的	-4898
连载	-4899
守护	-4900
8]	-4901
标题	-4902
一是	-4903
▁词条	-4904
▁只是	-4905
工作者	-4906
▁元	-4907
斗争	-4908
时代的	-4909
直径	-4910
这点	-4911
项目的	-4912
安徽省	-4913
▁非	-4914
机器人	-4915
eg	-4916
抓住	-4917
大道	-4918
北京市	-4919
变形	-4920
三天	-4921
题材	-4922
几率	-4923
5、	-4924
团结	-4925
84	-4926
▁风	-4927
技术的	-4928
定制	-4929
季节	-4930
▁感觉	-4931
投诉	-4932
第九	-4933
宝宝的	-4934
书中	-4935
当事	-4936
我爸	-4937
0,	-4938
印刷	-4939
可用	-4940
(1)	-4941
精英	-4942
石头	-4943
▁毕竟	-4944
是大	-4945
还是很	-4946
早就	-4947
ood	-4948
提名	-4949
十九章	-4950
字母	-4951
OR	-4952
2:	-4953
诉讼	-4954
▁神	-4955
科学院	-4956
眼泪	-4957
我不知道	-4958
武装	-4959
ber	-4960
▁第四节	-4961
配备	-4962
下一	-4963
周年	-4964
拓展	-4965
▁找	-4966
主机	-4967
罢了	-4968
摄像头	-4969
情的	-4970
多人	-4971
吵架	-4972
如果没有	-4973
上线	-4974
让他们	-4975
决心	-4976
检察	-4977
SP	-4978
是非常	-4979
绿化	-4980
全世界	-4981
了就	-4982
各大	-4983
签订	-4984
钱的	-4985
的女人	-4986
等方面	-4987
月初	-4988
的社会	-4989
82	-4990
ox	-4991
婆婆	-4992
负担	-4993
牙齿	-4994
是用	-4995
电器	-4996
有多少	-4997
▁my	-4998
课堂	-4999
深的	-5000
了好	-5001
碰到	-5002
防护	-5003
勇敢	-5004
厨房	-5005
替代	-5006
公寓	-5007
移民	-5008
极限	-5009
饮料	-5010
魔兽	-5011
队的	-5012
说自己	-5013
偷偷	-5014
阿尔	-5015
▁工作	-5016
路人	-5017
的功能	-5018
出自	-5019
都不是	-5020
荷兰	-5021
激烈	-5022
事物	-5023
电气	-5024
一线	-5025
十大	-5026
轻轻	-5027
前景	-5028
own	-5029
EL	-5030
几种	-5031
ix	-5032
毕业后	-5033
组织实施	-5034
白天	-5035
MD	-5036
不论	-5037
对抗	-5038
名词	-5039
创始	-5040
子上	-5041
功夫	-5042
一系列	-5043
的全	-5044
合适的	-5045
视角	-5046
ss	-5047
过滤	-5048
完成了	-5049
都知道	-5050
中毒	-5051
页面	-5052
ick	-5053
CS	-5054
开关	-5055
▁网络	-5056
江苏省	-5057
像是	-5058
吉他	-5059
举报	-5060
长度	-5061
多吃	-5062
买到	-5063
宝石	-5064
光明	-5065
行业的	-5066
主编	-5067
同样的	-5068
大人	-5069
豆瓣	-5070
配件	-5071
ial	-5072
期限	-5073
▁我也	-5074
开通	-5075
格兰	-5076
的女孩	-5077
解决方案	-5078
师傅	-5079
▁Q	-5080
你去	-5081
4000	-5082
▁2003	-5083
语法	-5084
▁with	-5085
假的	-5086
纳税	-5087
又称	-5088
五行	-5089
,5	-5090
美洲	-5091
行驶	-5092
打工	-5093
立方	-5094
选择了	-5095
我没有	-5096
司马	-5097
一带	-5098
旋转	-5099
人格	-5100
ike	-5101
匹配	-5102
比上	-5103
少的	-5104
▁结果	-5105
程序员	-5106
避孕	-5107
在美国	-5108
要素	-5109
微软	-5110
缺陷	-5111
传承	-5112
销量	-5113
诚信	-5114
钢铁	-5115
▁@	-5116
xx	-5117
的服务	-5118
句子	-5119
解读	-5120
坐标	-5121
传感	-5122
指导意见	-5123
部件	-5124
看到的	-5125
祝福	-5126
马尔	-5127
那边	-5128
看书	-5129
93	-5130
兴奋	-5131
平常	-5132
辞职	-5133
ran	-5134
姆斯	-5135
巴黎	-5136
一口	-5137
科学家	-5138
高温	-5139
正义	-5140
做一个	-5141
阻止	-5142
人力资源	-5143
体积	-5144
的使用	-5145
意识到	-5146
▁第一章	-5147
流畅	-5148
的表现	-5149
诞生	-5150
公民	-5151
远远	-5152
总之	-5153
力和	-5154
出生于	-5155
人民法院	-5156
退出	-5157
招标	-5158
ake	-5159
认同	-5160
收购	-5161
水中	-5162
告知	-5163
一等奖	-5164
的作品	-5165
道歉	-5166
含义	-5167
没法	-5168
喜欢你	-5169
▁你可以	-5170
改编	-5171
10-	-5172
信息化	-5173
三次	-5174
ies	-5175
然后再	-5176
▁ch	-5177
▁截	-5178
已有	-5179
玩具	-5180
看得	-5181
ai	-5182
还不错	-5183
众人	-5184
中等	-5185
挺好的	-5186
ave	-5187
全村	-5188
感受到	-5189
以此	-5190
▁龙	-5191
用过	-5192
的环境	-5193
1998	-5194
充足	-5195
着我	-5196
多年的	-5197
有些人	-5198
的目的	-5199
试图	-5200
▁词条图册	-5201
战役	-5202
耳朵	-5203
电商	-5204
进来	-5205
92	-5206
套路	-5207
后再	-5208
▁让	-5209
编号	-5210
巴西	-5211
要去	-5212
刚开始	-5213
▁更多图册	-5214
之前的	-5215
等到	-5216
月至	-5217
园区	-5218
mg	-5219
女神	-5220
▁戴	-5221
图案	-5222
遭遇	-5223
严重的	-5224
小姐	-5225
怎么做	-5226
垂直	-5227
消防	-5228
有过	-5229
忽略	-5230
回报	-5231
意见建议	-5232
cp	-5233
很不	-5234
有利于	-5235
我对	-5236
你觉得	-5237
眼神	-5238
伤心	-5239
你也	-5240
160	-5241
▁that	-5242
助于	-5243
游客	-5244
你看	-5245
为啥	-5246
权的	-5247
它是	-5248
ork	-5249
豆腐	-5250
的女生	-5251
澳大利	-5252
————————————————	-5253
不吃	-5254
日的	-5255
约定	-5256
立体	-5257
▁是不是	-5258
财经	-5259
五个	-5260
脑子	-5261
奥特	-5262
必要的	-5263
申报	-5264
内外	-5265
澳大利亚	-5266
遗产	-5267
发电	-5268
▁地	-5269
未知	-5270
加拿大	-5271
大一	-5272
mp	-5273
扫描	-5274
起到	-5275
地说	-5276
增加了	-5277
保养	-5278
五十	-5279
第二个	-5280
类别	-5281
不着	-5282
可怜	-5283
口味	-5284
剧本	-5285
▁车	-5286
▁手	-5287
微生物	-5288
还是有	-5289
▁13	-5290
运作	-5291
▁50	-5292
展览	-5293
钻石	-5294
▁[7]	-5295
士兵	-5296
两个月	-5297
快捷	-5298
迷茫	-5299
的企业	-5300
愉快	-5301
放下	-5302
一方面	-5303
导航	-5304
防守	-5305
之为	-5306
什么是	-5307
想去	-5308
在乎	-5309
会出现	-5310
▁真的	-5311
气温	-5312
一个是	-5313
早已	-5314
活性	-5315
征收	-5316
菜单	-5317
入手	-5318
神话	-5319
只好	-5320
场上	-5321
方针	-5322
放大	-5323
精华	-5324
解析	-5325
景点	-5326
探讨	-5327
会上	-5328
▁时	-5329
班主任	-5330
的态度	-5331
反馈	-5332
即便	-5333
战国	-5334
GT	-5335
京东	-5336
频繁	-5337
沈阳	-5338
初级	-5339
学期	-5340
用药	-5341
基亚	-5342
成立于	-5343
视野	-5344
难过	-5345
杀毒	-5346
厂家	-5347
给宝宝	-5348
职能	-5349
同比	-5350
▁Un	-5351
大气	-5352
秘书长	-5353
一群	-5354
▁罗	-5355
提出了	-5356
2/	-5357
的状态	-5358
春秋	-5359
出身	-5360
恶魔	-5361
刑事	-5362
全程	-5363
hy	-5364
OC	-5365
几百	-5366
东京	-5367
予以	-5368
与其	-5369
产生了	-5370
党的	-5371
携带	-5372
中最	-5373
贵族	-5374
▁看到	-5375
艺术家	-5376
:5	-5377
我可以	-5378
洗澡	-5379
雷达	-5380
▁时间	-5381
差不	-5382
组建	-5383
经济发展	-5384
这个时候	-5385
”,“	-5386
得以	-5387
千年	-5388
假设	-5389
指点	-5390
就已经	-5391
这边	-5392
介绍了	-5393
妊娠	-5394
日报	-5395
过多	-5396
失去了	-5397
常委	-5398
咱们	-5399
场的	-5400
林业	-5401
就是在	-5402
大专	-5403
其实是	-5404
▁急	-5405
原来的	-5406
市政府	-5407
-03-	-5408
’0	-5409
人性	-5410
活跃	-5411
AV	-5412
杀死	-5413
情人	-5414
▁之后	-5415
特定	-5416
0.5	-5417
感的	-5418
当时的	-5419
加坡	-5420
之地	-5421
路由器	-5422
:4	-5423
分解	-5424
就把	-5425
▁百度	-5426
图形	-5427
▁相	-5428
活动的	-5429
新人	-5430
自学	-5431
取得了	-5432
八字	-5433
▁网	-5434
河南省	-5435
▁除	-5436
全是	-5437
▁听	-5438
OP	-5439
中午	-5440
承包	-5441
yst	-5442
就是一个	-5443
希望能	-5444
消毒	-5445
体质	-5446
我也是	-5447
中国人民	-5448
远离	-5449
身为	-5450
的力量	-5451
▁问	-5452
83	-5453
面膜	-5454
什么都	-5455
我真的	-5456
这条	-5457
高速公路	-5458
实现了	-5459
所有人	-5460
af	-5461
势力	-5462
该如何	-5463
莫名	-5464
闺蜜	-5465
买卖	-5466
道具	-5467
法师	-5468
水量	-5469
▁其次	-5470
一批	-5471
文件夹	-5472
其他人	-5473
▁鲁	-5474
min	-5475
%25,	-5476
理事会	-5477
剩下	-5478
够了	-5479
不成	-5480
提取	-5481
签约	-5482
的名	-5483
总经理	-5484
调研	-5485
得多	-5486
支付宝	-5487
▁注意	-5488
:0	-5489
精致	-5490
一点的	-5491
曝光	-5492
▁问题	-5493
停车	-5494
情侣	-5495
之类	-5496
渴望	-5497
一声	-5498
」,	-5499
图标	-5500
:9	-5501
争议	-5502
放到	-5503
-19	-5504
搞笑	-5505
采访	-5506
IF	-5507
想的	-5508
▁以前	-5509
81	-5510
周末	-5511
一般是	-5512
就说	-5513
轻易	-5514
IE	-5515
绝望	-5516
在国内	-5517
()	-5518
流通	-5519
单曲	-5520
这张	-5521
普通人	-5522
有的人	-5523
向前	-5524
▁于	-5525
尔斯	-5526
密切	-5527
陷入	-5528
淘汰	-5529
口服	-5530
▁机	-5531
经费	-5532
的形式	-5533
纯粹	-5534
▁今	-5535
默认	-5536
耐心	-5537
构造	-5538
世界杯	-5539
ST	-5540
买房	-5541
大致	-5542
委员会委员	-5543
市区	-5544
达成	-5545
能力的	-5546
眼前	-5547
纷纷	-5548
好看的	-5549
选用	-5550
▁那个	-5551
亿美元	-5552
联邦	-5553
类型的	-5554
同一个	-5555
在网上	-5556
你还	-5557
伟大	-5558
战胜	-5559
王朝	-5560
打破	-5561
我已经	-5562
一时	-5563
朝鲜	-5564
没了	-5565
增值	-5566
暴露	-5567
,4	-5568
喝水	-5569
同年	-5570
人是	-5571
备案	-5572
祝你	-5573
的地	-5574
上传	-5575
在外	-5576
pro	-5577
金钱	-5578
无所	-5579
▁an	-5580
我又	-5581
所说的	-5582
期望	-5583
开的	-5584
是一家	-5585
.5	-5586
▁高中	-5587
全体	-5588
模糊	-5589
当天	-5590
溶液	-5591
再加上	-5592
使其	-5593
商城	-5594
9]	-5595
毛病	-5596
欧美	-5597
oft	-5598
鼻子	-5599
的过程中	-5600
新手	-5601
最后的	-5602
诺基亚	-5603
......”	-5604
异性	-5605
上帝	-5606
很喜欢	-5607
的学习	-5608
ond	-5609
GA	-5610
以免	-5611
私信	-5612
面包	-5613
6,	-5614
后者	-5615
重启	-5616
很简单	-5617
安卓	-5618
命中	-5619
越好	-5620
old	-5621
▁夏	-5622
程度上	-5623
二等奖	-5624
贫困	-5625
那时	-5626
ish	-5627
登记成立	-5628
多样	-5629
找我	-5630
攻略	-5631
模仿	-5632
不像	-5633
延长	-5634
两侧	-5635
形势	-5636
减轻	-5637
演讲	-5638
没问题	-5639
出于	-5640
抵抗	-5641
久了	-5642
ite	-5643
开拓	-5644
这时候	-5645
%3	-5646
USB	-5647
野生	-5648
▁第二章	-5649
众生	-5650
先进的	-5651
各级	-5652
由此	-5653
培育	-5654
%2	-5655
等地	-5656
股东	-5657
海南	-5658
也被	-5659
开发区	-5660
序列	-5661
牛逼	-5662
▁哪	-5663
完整的	-5664
天空	-5665
队员	-5666
净化	-5667
▁亲	-5668
挖掘	-5669
这就	-5670
射击	-5671
按钮	-5672
狗狗	-5673
特效	-5674
组成员	-5675
他会	-5676
连锁	-5677
》)	-5678
极端	-5679
时间的	-5680
▁电脑	-5681
老师的	-5682
BM	-5683
▁像	-5684
气息	-5685
心疼	-5686
若干	-5687
▁大概	-5688
时期的	-5689
3.5	-5690
选举	-5691
浙江省	-5692
的食物	-5693
▁家	-5694
基础设施	-5695
▁需要	-5696
▁主演	-5697
________	-5698
2+	-5699
人类的	-5700
脱离	-5701
唯一的	-5702
号线	-5703
cl	-5704
▁房	-5705
加以	-5706
一个人的	-5707
斯科	-5708
▁景	-5709
媳妇	-5710
学员	-5711
▁」	-5712
组织的	-5713
济南	-5714
条件下	-5715
MV	-5716
越多	-5717
多元	-5718
▁嗯	-5719
一台	-5720
▁经过	-5721
关键词	-5722
参加了	-5723
手法	-5724
提供的	-5725
典型的	-5726
▁既然	-5727
▁转	-5728
热带	-5729
过去了	-5730
暗示	-5731
ens	-5732
曲线	-5733
寂寞	-5734
辉煌	-5735
得分	-5736
老子	-5737
合物	-5738
不仅仅	-5739
原谅	-5740
不受	-5741
如同	-5742
有一些	-5743
看不到	-5744
服务的	-5745
人气	-5746
产值	-5747
ction	-5748
做事	-5749
中山	-5750
的路	-5751
尽可能	-5752
自卑	-5753
约翰	-5754
领域的	-5755
私人	-5756
▁com	-5757
存款	-5758
的一部分	-5759
知道的	-5760
优雅	-5761
诗歌	-5762
多大	-5763
好不好	-5764
传染	-5765
切换	-5766
忍不住	-5767
其余	-5768
开始了	-5769
执导	-5770
ase	-5771
一眼	-5772
供应商	-5773
的存在	-5774
塑造	-5775
公告	-5776
豪华	-5777
中国共产党	-5778
10]	-5779
生产的	-5780
▁进	-5781
IA	-5782
你怎么	-5783
河流	-5784
认为是	-5785
0000	-5786
就不要	-5787
目的是	-5788
褐色	-5789
护士	-5790
加大	-5791
桌面	-5792
te	-5793
羡慕	-5794
前进	-5795
县委	-5796
解除	-5797
下次	-5798
必须要	-5799
每周	-5800
普通的	-5801
不止	-5802
七八	-5803
▁男生	-5804
内地	-5805
牛肉	-5806
哈尔滨	-5807
学习的	-5808
▁应	-5809
开车	-5810
崩溃	-5811
▁过	-5812
格局	-5813
就读	-5814
不适合	-5815
击败	-5816
解决了	-5817
力学	-5818
加班	-5819
-20	-5820
贴吧	-5821
for	-5822
▁石	-5823
▁历史	-5824
干什么	-5825
从未	-5826
车型	-5827
-04-	-5828
发病	-5829
考古	-5830
每月	-5831
乃至	-5832
军的	-5833
后果	-5834
”、	-5835
专题	-5836
▁微信	-5837
BC	-5838
我了	-5839
起的	-5840
茶叶	-5841
复读	-5842
一定是	-5843
sign	-5844
水分	-5845
总裁	-5846
ich	-5847
描写	-5848
境界	-5849
艺人	-5850
司令	-5851
学士	-5852
犹豫	-5853
▁中文	-5854
几个月	-5855
roid	-5856
对其	-5857
大夫	-5858
-05-	-5859
▁11.	-5860
任意	-5861
非要	-5862
低的	-5863
▁电影	-5864
主要有	-5865
岁月	-5866
▁人物	-5867
之内	-5868
冰箱	-5869
转让	-5870
ence	-5871
果然	-5872
力度	-5873
监督管理	-5874
▁苏	-5875
倒是	-5876
冬季	-5877
双手	-5878
▁作品	-5879
主张	-5880
-06-	-5881
6)	-5882
没必要	-5883
▁第三章	-5884
-5	-5885
的规定	-5886
正面	-5887
SS	-5888
义词	-5889
破解	-5890
都说	-5891
头像	-5892
弟子	-5893
短期	-5894
没啥	-5895
我能	-5896
询问	-5897
形的	-5898
物体	-5899
▁也许	-5900
幽默	-5901
1997	-5902
换了	-5903
实时	-5904
因为他	-5905
:10	-5906
要不要	-5907
EX	-5908
场合	-5909
▁CPU	-5910
▁成	-5911
更大	-5912
形成的	-5913
对了	-5914
清除	-5915
可以的	-5916
商场	-5917
日记	-5918
合理的	-5919
传感器	-5920
重装	-5921
沉默	-5922
▁饰演	-5923
职称	-5924
▁[8]	-5925
的角度	-5926
▁并	-5927
-01-	-5928
郑州	-5929
比我	-5930
基础上	-5931
欺负	-5932
丛书	-5933
批发	-5934
sc	-5935
养成	-5936
的变化	-5937
醒来	-5938
▁do	-5939
指令	-5940
▁定	-5941
配方	-5942
还得	-5943
些什么	-5944
视为	-5945
手里	-5946
唱片	-5947
▁书	-5948
投资者	-5949
剩下的	-5950
事儿	-5951
延伸	-5952
ert	-5953
首都	-5954
极为	-5955
累计	-5956
And	-5957
照明	-5958
发票	-5959
都会有	-5960
对她	-5961
感觉到	-5962
好像是	-5963
一日	-5964
比赛中	-5965
黑龙江	-5966
▁火	-5967
和大	-5968
冷静	-5969
之时	-5970
创办	-5971
正剧	-5972
。19	-5973
陪伴	-5974
防晒	-5975
左右的	-5976
只需要	-5977
齐全	-5978
剧中	-5979
宽带	-5980
拯救	-5981
叫什么	-5982
▁not	-5983
独自	-5984
:1.	-5985
说的是	-5986
许可证	-5987
AA	-5988
拿出	-5989
(3	-5990
▁下面	-5991
▁十	-5992
卓越	-5993
品的	-5994
湖北省	-5995
新区	-5996
指示	-5997
ult	-5998
vers	-5999
平等	-6000
应急	-6001
新建	-6002
MHz	-6003
还需要	-6004
两者	-6005
卸载	-6006
不让	-6007
/2	-6008
不宜	-6009
阴阳	-6010
的精神	-6011
集团有限公司	-6012
用心	-6013
用水	-6014
流传	-6015
激动	-6016
过得	-6017
初步	-6018
简历	-6019
就知道	-6020
冷却	-6021
ext	-6022
洗净	-6023
ah	-6024
阿里	-6025
太子	-6026
优越	-6027
忽然	-6028
win	-6029
ere	-6030
富有	-6031
真实的	-6032
遵守	-6033
流水	-6034
律宾	-6035
ata	-6036
支出	-6037
不出来	-6038
创立	-6039
派出	-6040
进展	-6041
刚好	-6042
业余	-6043
惊喜	-6044
就想	-6045
层的	-6046
气氛	-6047
非洲	-6048
所以我	-6049
HD	-6050
一对	-6051
有一种	-6052
健全	-6053
剧场	-6054
-07-	-6055
教育的	-6056
相结合	-6057
引发	-6058
建于	-6059
发生的	-6060
大便	-6061
▁Th	-6062
年开始	-6063
全新	-6064
千万不要	-6065
出轨	-6066
无可	-6067
花了	-6068
尽快	-6069
流产	-6070
蛋糕	-6071
词语	-6072
打的	-6073
130	-6074
只能说	-6075
上面的	-6076
疫苗	-6077
均衡	-6078
二年	-6079
过分	-6080
比较多	-6081
职位	-6082
电磁	-6083
影像	-6084
是如何	-6085
寝室	-6086
智力	-6087
▁美的	-6088
创始人	-6089
篇文章	-6090
对不起	-6091
▁class	-6092
愤怒	-6093
最有	-6094
咳嗽	-6095
大哥	-6096
比上年	-6097
一万	-6098
具体的	-6099
地板	-6100
历程	-6101
TM	-6102
三观	-6103
一方	-6104
▁le	-6105
标准的	-6106
各国	-6107
这首歌	-6108
没错	-6109
何况	-6110
靠近	-6111
纺织	-6112
下一个	-6113
一一	-6114
奇葩	-6115
架空	-6116
人不	-6117
下面的	-6118
可以选择	-6119
出道	-6120
审判	-6121
宝马	-6122
会对	-6123
奇迹	-6124
无比	-6125
不超过	-6126
信用卡	-6127
取决	-6128
基督	-6129
安全生产	-6130
可在	-6131
史上	-6132
哺乳	-6133
着急	-6134
较多	-6135
姿势	-6136
市场上	-6137
▁(4)	-6138
火车站	-6139
NBA	-6140
才可以	-6141
入学	-6142
排行	-6143
业绩	-6144
▁系统	-6145
真题	-6146
门的	-6147
混乱	-6148
人与	-6149
划分	-6150
ux	-6151
一支	-6152
也不要	-6153
2.2	-6154
久的	-6155
总会	-6156
对着	-6157
文档	-6158
而来	-6159
讲究	-6160
▁孙	-6161
13.	-6162
这个世界	-6163
排列	-6164
▁换	-6165
取代	-6166
回收	-6167
晶体	-6168
的需求	-6169
董事长	-6170
风扇	-6171
栽培	-6172
秩序	-6173
旗下	-6174
激励	-6175
大佬	-6176
库存	-6177
要不	-6178
▁2002	-6179
修正	-6180
纯爱	-6181
▁学习	-6182
区分	-6183
悲伤	-6184
面板	-6185
鞋子	-6186
等着	-6187
▁最好	-6188
抗日	-6189
是怎么回事	-6190
百分之	-6191
▁第一次	-6192
▁徐	-6193
bb	-6194
国防	-6195
有帮助	-6196
辣椒	-6197
遭到	-6198
液体	-6199
清水	-6200
给孩子	-6201
系数	-6202
伦敦	-6203
米的	-6204
如果不	-6205
回应	-6206
事的	-6207
可爱的	-6208
大幅	-6209
ystem	-6210
再来	-6211
地狱	-6212
ann	-6213
了的	-6214
小于	-6215
乐趣	-6216
遇到了	-6217
▁不管	-6218
不满	-6219
▁your	-6220
尚未	-6221
-7	-6222
跟踪	-6223
▁叶	-6224
怪兽	-6225
器官	-6226
的意义	-6227
▁数	-6228
路易	-6229
了你	-6230
▁超	-6231
的上	-6232
CE	-6233
总面积	-6234
我看	-6235
ool	-6236
车站	-6237
考上	-6238
或者说	-6239
阿拉	-6240
新加坡	-6241
拼音	-6242
强行	-6243
整天	-6244
米兰	-6245
研究中心	-6246
金刚	-6247
ach	-6248
探测	-6249
足够的	-6250
纠纷	-6251
价位	-6252
nb	-6253
水泥	-6254
▁或	-6255
128	-6256
相同的	-6257
以前的	-6258
要在	-6259
211	-6260
时空	-6261
利息	-6262
可持续	-6263
▁德国	-6264
不安	-6265
二是	-6266
ail	-6267
AI	-6268
开设	-6269
而在	-6270
▁第四章	-6271
▁次	-6272
给大家	-6273
吉祥	-6274
占有	-6275
土木	-6276
▁青	-6277
▁are	-6278
勇士	-6279
起来的	-6280
要用	-6281
小儿	-6282
自身的	-6283
架构	-6284
悲剧	-6285
▁公众号	-6286
自行车	-6287
越大	-6288
一波	-6289
委屈	-6290
附属	-6291
ary	-6292
的小说	-6293
工作室	-6294
14.	-6295
还有一个	-6296
91	-6297
▁克	-6298
分裂	-6299
oss	-6300
德里	-6301
市级	-6302
爱上	-6303
测定	-6304
她是	-6305
歧视	-6306
看一下	-6307
质疑	-6308
毫不	-6309
▁直接	-6310
通风	-6311
均为	-6312
▁按照	-6313
DP	-6314
消灭	-6315
寻求	-6316
炎症	-6317
之人	-6318
公顷	-6319
▁经	-6320
CM	-6321
罚款	-6322
自觉	-6323
再去	-6324
列车	-6325
长沙	-6326
债务	-6327
头上	-6328
啥的	-6329
▁...	-6330
是怎样	-6331
几点	-6332
流浪	-6333
手册	-6334
讲解	-6335
据说	-6336
fer	-6337
天才	-6338
字的	-6339
取决于	-6340
▁反	-6341
ph	-6342
▁尽管	-6343
但他	-6344
精确	-6345
友谊	-6346
观看	-6347
走的	-6348
阴道	-6349
世间	-6350
半夜	-6351
!?	-6352
自来	-6353
学费	-6354
泰国	-6355
这本书	-6356
的概念	-6357
字体	-6358
职场	-6359
无所谓	-6360
管道	-6361
人之	-6362
US	-6363
ound	-6364
商店	-6365
不存在	-6366
交给	-6367
接到	-6368
挑选	-6369
的目标	-6370
老是	-6371
一颗	-6372
余人	-6373
想过	-6374
好吧	-6375
▁这就是	-6376
愿望	-6377
便于	-6378
人人	-6379
到医院	-6380
的家	-6381
网卡	-6382
无力	-6383
ory	-6384
了几	-6385
exe	-6386
翡翠	-6387
大奖	-6388
精心	-6389
子和	-6390
处处	-6391
前任	-6392
用的是	-6393
认证的	-6394
▁英	-6395
有好	-6396
cc	-6397
▁法	-6398
画家	-6399
我一直	-6400
的日子	-6401
供应链	-6402
之上	-6403
登场	-6404
最具	-6405
千克	-6406
-07	-6407
2.1	-6408
住院	-6409
塞尔	-6410
总局	-6411
▁朱	-6412
很小	-6413
宏观	-6414
▁怀孕	-6415
爱国	-6416
体力	-6417
=0	-6418
偶然	-6419
变更	-6420
lo	-6421
营造	-6422
出席	-6423
延续	-6424
的标准	-6425
的音乐	-6426
听过	-6427
阵容	-6428
的部分	-6429
南部	-6430
的海	-6431
不应该	-6432
▁大学生	-6433
担保	-6434
职员	-6435
(2	-6436
万平方米	-6437
的就	-6438
的两	-6439
礼仪	-6440
西游	-6441
不来	-6442
无疑	-6443
听力	-6444
假如	-6445
年第	-6446
达到了	-6447
全力	-6448
SM	-6449
欢乐	-6450
▁拉	-6451
的啊	-6452
eat	-6453
激情	-6454
损坏	-6455
少量	-6456
不好意思	-6457
▁汉	-6458
国家和	-6459
外出	-6460
very	-6461
了一些	-6462
后续	-6463
年初	-6464
多多	-6465
路径	-6466
医学院	-6467
她在	-6468
一项	-6469
这不是	-6470
▁至	-6471
生死	-6472
OT	-6473
优良	-6474
代价	-6475
的都是	-6476
演奏	-6477
-8	-6478
▁星	-6479
真诚	-6480
是一部	-6481
口语	-6482
终端	-6483
顶级	-6484
大连	-6485
以内	-6486
奥运会	-6487
管理和	-6488
带动	-6489
发烧	-6490
善于	-6491
副局长	-6492
▁or	-6493
菩提	-6494
社保	-6495
主观	-6496
成年人	-6497
同时也	-6498
▁知乎	-6499
过后	-6500
凌晨	-6501
▁今年	-6502
复杂的	-6503
当事人	-6504
一面	-6505
习题	-6506
王的	-6507
不小心	-6508
年被	-6509
说出	-6510
6、	-6511
装甲	-6512
▁即使	-6513
内容简介	-6514
无需	-6515
单一	-6516
也不错	-6517
个小	-6518
无效	-6519
玩了	-6520
985	-6521
ntel	-6522
好评	-6523
13]	-6524
细腻	-6525
诸多	-6526
▁反正	-6527
缺少	-6528
伟大的	-6529
可乐	-6530
老的	-6531
为什么不	-6532
食堂	-6533
四十	-6534
▁保	-6535
▁负责	-6536
味的	-6537
毁灭	-6538
变的	-6539
》、	-6540
有两个	-6541
一座	-6542
封闭	-6543
克服	-6544
▁快	-6545
好奇	-6546
此外	-6547
对此	-6548
会影响	-6549
钥匙	-6550
资讯	-6551
完美的	-6552
白的	-6553
平凡	-6554
名人	-6555
隔离	-6556
编码	-6557
想知道	-6558
▁总之	-6559
我喜欢	-6560
旋律	-6561
长了	-6562
供电	-6563
付款	-6564
1.1	-6565
日军	-6566
▁世界	-6567
签证	-6568
缴纳	-6569
年了	-6570
学报	-6571
斯的	-6572
长春	-6573
分公司	-6574
可以说是	-6575
资深	-6576
分支	-6577
无敌	-6578
无穷	-6579
我也不	-6580
腹部	-6581
抱怨	-6582
竞争力	-6583
复活	-6584
方位	-6585
投标	-6586
山水	-6587
足以	-6588
的数据	-6589
采用了	-6590
摆脱	-6591
ta	-6592
服饰	-6593
发热	-6594
康熙	-6595
环境保护	-6596
点赞	-6597
最高的	-6598
gr	-6599
艰难	-6600
-03	-6601
以下的	-6602
回国	-6603
依照	-6604
他也	-6605
▁之前	-6606
▁al	-6607
▁国际	-6608
▁选	-6609
=2	-6610
活泼	-6611
是被	-6612
旗舰	-6613
科幻	-6614
占地面积	-6615
光盘	-6616
为自己	-6617
就是这样	-6618
国土	-6619
声明	-6620
弹性	-6621
的前提	-6622
有一次	-6623
高等教育	-6624
▁常	-6625
以往	-6626
步行	-6627
▁呵呵	-6628
▁这一	-6629
反射	-6630
抄袭	-6631
精准	-6632
布置	-6633
相亲	-6634
糖尿	-6635
经历了	-6636
响应	-6637
回来了	-6638
5%	-6639
温和	-6640
盈利	-6641
客人	-6642
命名	-6643
舍友	-6644
着的	-6645
找工作	-6646
▁专业	-6647
活力	-6648
实在是	-6649
MI	-6650
美丽的	-6651
算了	-6652
是种	-6653
GP	-6654
eng	-6655
曹操	-6656
膨胀	-6657
之战	-6658
终身	-6659
诸葛	-6660
出售	-6661
预计	-6662
怎么说	-6663
收拾	-6664
严谨	-6665
般的	-6666
麦克	-6667
(1	-6668
▁写	-6669
▁7、	-6670
是哪	-6671
当成	-6672
中级	-6673
因为你	-6674
对方的	-6675
▁公	-6676
15.	-6677
RE	-6678
阿姨	-6679
问他	-6680
在那	-6681
一千	-6682
大街	-6683
8,	-6684
▁社会	-6685
称之为	-6686
品牌的	-6687
-06	-6688
索尼	-6689
ISO	-6690
限于	-6691
▁QQ	-6692
▁春	-6693
老家	-6694
补贴	-6695
平原	-6696
2.3	-6697
乐观	-6698
元年	-6699
权限	-6700
试点	-6701
的风	-6702
非法	-6703
村委会	-6704
是不会	-6705
开水	-6706
▁第五章	-6707
外部	-6708
融入	-6709
人生的	-6710
走出	-6711
落后	-6712
一度	-6713
第一百	-6714
金山	-6715
ical	-6716
治愈	-6717
复印	-6718
天堂	-6719
收缩	-6720
得上	-6721
你说的	-6722
分区	-6723
当作	-6724
君子	-6725
▁熊	-6726
疾病的	-6727
arget	-6728
截图	-6729
草原	-6730
惊艳	-6731
最重要	-6732
千里	-6733
联合国	-6734
的质量	-6735
考虑到	-6736
BB	-6737
”?	-6738
1996	-6739
▁[9]	-6740
oo	-6741
考验	-6742
骨干	-6743
上海市	-6744
主持人	-6745
但不	-6746
导致的	-6747
11]	-6748
一道	-6749
走路	-6750
▁--	-6751
装的	-6752
一事	-6753
想说	-6754
北部	-6755
用什么	-6756
供给	-6757
长安	-6758
差点	-6759
卖家	-6760
好吃	-6761
疲劳	-6762
一分	-6763
转型	-6764
零食	-6765
怪物	-6766
上级	-6767
羽毛	-6768
大概是	-6769
乾隆	-6770
封建	-6771
内蒙古	-6772
送到	-6773
····	-6774
结束后	-6775
的原则	-6776
勉强	-6777
发现自己	-6778
▁即	-6779
祖国	-6780
男孩子	-6781
强迫	-6782
工商行政	-6783
似的	-6784
节约	-6785
不要太	-6786
其中的	-6787
口碑	-6788
我们可以	-6789
西藏	-6790
不怕	-6791
多项	-6792
▁生活	-6793
▁热	-6794
内置	-6795
头部	-6796
▁胡	-6797
▁2001	-6798
水晶	-6799
眼光	-6800
所在地	-6801
CH	-6802
你们的	-6803
总监	-6804
▁那些	-6805
已经是	-6806
交叉	-6807
有限公司于	-6808
我不是	-6809
友好	-6810
发放	-6811
技术人员	-6812
icro	-6813
气象	-6814
哭了	-6815
是为	-6816
有两	-6817
参加工作	-6818
屁股	-6819
沙漠	-6820
啤酒	-6821
为中心	-6822
初恋	-6823
度假	-6824
对照	-6825
)/	-6826
更容易	-6827
熟练	-6828
▁by	-6829
的各种	-6830
-4	-6831
都是在	-6832
――	-6833
恐怕	-6834
地处	-6835
悟空	-6836
有一定	-6837
集合	-6838
▁题主	-6839
拜托	-6840
和发展	-6841
▁#	-6842
氨基	-6843
邻居	-6844
了两	-6845
」?	-6846
别墅	-6847
指的是	-6848
入口	-6849
转向	-6850
-04	-6851
精度	-6852
夏季	-6853
起来了	-6854
的可能性	-6855
列表	-6856
实战	-6857
抑郁症	-6858
VIP	-6859
泻药	-6860
▁23	-6861
第三方	-6862
参演	-6863
不做	-6864
开头	-6865
还不如	-6866
依托	-6867
三人	-6868
▁内存	-6869
学金	-6870
▁鸡	-6871
内在	-6872
被动	-6873
好用	-6874
的手机	-6875
▁所	-6876
你了	-6877
▁研究	-6878
和管理	-6879
模特	-6880
一枚	-6881
花费	-6882
Pro	-6883
itle	-6884
电梯	-6885
就不能	-6886
有限责任	-6887
楼上	-6888
官员	-6889
▁制作	-6890
▁可能是	-6891
拆迁	-6892
App	-6893
全新的	-6894
越高	-6895
为例	-6896
平静	-6897
ode	-6898
你现在	-6899
为基础	-6900
-30	-6901
是怎样的	-6902
推理	-6903
XP	-6904
产后	-6905
双眼	-6906
解放军	-6907
▁80	-6908
谨慎	-6909
(18	-6910
副教授	-6911
会很	-6912
▁国内	-6913
的所有	-6914
OW	-6915
ade	-6916
同性	-6917
树立	-6918
杀手	-6919
劳动力	-6920
不断的	-6921
一同	-6922
谁知道	-6923
扩张	-6924
的照片	-6925
是我们	-6926
回答者	-6927
完毕	-6928
养生	-6929
酒吧	-6930
蜂蜜	-6931
320	-6932
在学校	-6933
平行	-6934
永久	-6935
了自己	-6936
素材	-6937
经历过	-6938
占据	-6939
▁at	-6940
一身	-6941
▁奥	-6942
情报	-6943
▁出版	-6944
得出	-6945
是自己	-6946
▁can	-6947
换成	-6948
是我的	-6949
不舒服	-6950
able	-6951
,6	-6952
的现象	-6953
cd	-6954
▁死	-6955
▁应该是	-6956
Cl	-6957
▁点	-6958
ae	-6959
为您	-6960
绝大多数	-6961
侦探	-6962
一首	-6963
的一点	-6964
用手	-6965
的不同	-6966
内科	-6967
地域	-6968
直线	-6969
喂养	-6970
摇滚	-6971
14]	-6972
提高了	-6973
▁英语	-6974
的速度	-6975
▁这样的	-6976
12]	-6977
的应用	-6978
140	-6979
坚决	-6980
这份	-6981
发起	-6982
执业	-6983
洗衣	-6984
波动	-6985
组成的	-6986
皇家	-6987
附加	-6988
的回答	-6989
▁特	-6990
给我们	-6991
img	-6992
占领	-6993
跟我说	-6994
直升	-6995
知识产权	-6996
没钱	-6997
见的	-6998
▁放	-6999
打败	-7000
詹姆斯	-7001
我感觉	-7002
▁战	-7003
问一下	-7004
太太	-7005
受欢迎	-7006
差的	-7007
夸张	-7008
▁项目	-7009
说实话	-7010
游戏中	-7011
撤销	-7012
人了	-7013
阴影	-7014
7,	-7015
聚集	-7016
自然科学	-7017
▁You	-7018
那你	-7019
家居	-7020
回合	-7021
持有	-7022
▁行	-7023
几何	-7024
▁as	-7025
-02-	-7026
更大的	-7027
丽的	-7028
哪里有	-7029
我当时	-7030
关联	-7031
远的	-7032
DVD	-7033
奖项	-7034
自己去	-7035
采集	-7036
▁所有	-7037
做得	-7038
骄傲	-7039
16.	-7040
二本	-7041
城市的	-7042
▁每个	-7043
情商	-7044
▁都是	-7045
喜欢的人	-7046
储存	-7047
计划生育	-7048
接待	-7049
护肤品	-7050
家乡	-7051
住在	-7052
▁河北省	-7053
业主	-7054
紧密	-7055
有助于	-7056
▁¥	-7057
玩意	-7058
部落	-7059
潜力	-7060
发生在	-7061
答题	-7062
-05	-7063
摩擦	-7064
副主席	-7065
================	-7066
开发商	-7067
代的	-7068
试着	-7069
火锅	-7070
起床	-7071
东部	-7072
不清楚	-7073
土豆	-7074
公元前	-7075
清新	-7076
还有就是	-7077
急性	-7078
师资	-7079
好朋友	-7080
山的	-7081
外交	-7082
将在	-7083
与应用	-7084
永恒	-7085
3/	-7086
率为	-7087
▁图	-7088
相遇	-7089
先进单位	-7090
言论	-7091
的男人	-7092
协商	-7093
不一样的	-7094
▁个	-7095
巅峰	-7096
奥特曼	-7097
种族	-7098
的公司	-7099
剂量	-7100
可达	-7101
孩子们	-7102
▁玩	-7103
稳定性	-7104
............	-7105
恶意	-7106
的中国	-7107
集团公司	-7108
澳洲	-7109
的首	-7110
终止	-7111
▁{	-7112
王国	-7113
享有	-7114
跟她	-7115
无意	-7116
剩余	-7117
不适	-7118
栏目	-7119
到大	-7120
验收	-7121
▁～	-7122
饭店	-7123
爱情轻松	-7124
:19	-7125
说一下	-7126
部署	-7127
石家庄	-7128
low	-7129
意思是	-7130
▁原来	-7131
dd	-7132
▁这个问题	-7133
特尔	-7134
▁12.	-7135
中考	-7136
肠道	-7137
数值	-7138
阐述	-7139
▁电话	-7140
走进	-7141
下班	-7142
安全感	-7143
小型	-7144
▁这时	-7145
打游戏	-7146
招商	-7147
遵循	-7148
途中	-7149
未必	-7150
安娜	-7151
元的	-7152
分散	-7153
除外	-7154
)=	-7155
菠萝	-7156
坚定	-7157
以便	-7158
▁韩	-7159
SD	-7160
不明	-7161
日内	-7162
15]	-7163
▁英文	-7164
一层	-7165
-6	-7166
aw	-7167
美人	-7168
km	-7169
开口	-7170
订单	-7171
多年来	-7172
大厦	-7173
▁我要	-7174
班级	-7175
卖的	-7176
挽回	-7177
对自己的	-7178
场地	-7179
四季	-7180
有限责任公司	-7181
).	-7182
一下子	-7183
较高的	-7184
落在	-7185
▁每次	-7186
之后的	-7187
关机	-7188
▁建筑	-7189
里面有	-7190
新华	-7191
谁能	-7192
▁Sh	-7193
基本的	-7194
客户端	-7195
生病	-7196
电机	-7197
酒精	-7198
疫情	-7199
民政	-7200
混凝	-7201
是什么样的	-7202
住宿	-7203
前途	-7204
赛事	-7205
▁我家	-7206
打扮	-7207
一顿	-7208
淀粉	-7209
他不	-7210
ance	-7211
。《	-7212
挺好	-7213
▁直到	-7214
tr	-7215
我来	-7216
目光	-7217
残疾人	-7218
并将	-7219
▁一直	-7220
1200	-7221
1.3	-7222
深圳市	-7223
自己是	-7224
理智	-7225
党组成员	-7226
▁装	-7227
文本	-7228
珍珠	-7229
便秘	-7230
▁25	-7231
多家	-7232
▁巴	-7233
为此	-7234
都需要	-7235
最多的	-7236
▁̄	-7237
痘痘	-7238
密封	-7239
▁人生	-7240
尔德	-7241
CI	-7242
类似于	-7243
只有一个	-7244
ms	-7245
为什么会	-7246
立方米	-7247
伤口	-7248
CF	-7249
文的	-7250
蓝牙	-7251
可以直接	-7252
处女	-7253
的想法	-7254
演绎	-7255
今日	-7256
一堆	-7257
PL	-7258
一阵	-7259
党组	-7260
涵盖	-7261
剪辑	-7262
ey	-7263
杀了	-7264
开学	-7265
相声	-7266
占地	-7267
▁以下	-7268
先天	-7269
彩虹	-7270
az	-7271
号的	-7272
来源于	-7273
我这	-7274
光驱	-7275
层面	-7276
动手	-7277
有害	-7278
两位	-7279
-18	-7280
较大的	-7281
外语	-7282
承办	-7283
才发现	-7284
▁显卡	-7285
日益	-7286
常用的	-7287
▁木	-7288
过渡	-7289
诗词	-7290
▁并且	-7291
实例	-7292
月亮	-7293
另一种	-7294
摄入	-7295
再生	-7296
方言	-7297
受不了	-7298
职业技术	-7299
市长	-7300
彩色	-7301
宁波	-7302
看似	-7303
▁一个人	-7304
书的	-7305
面部	-7306
手工	-7307
水电	-7308
一篇	-7309
桃花	-7310
厚度	-7311
冲动	-7312
尼斯	-7313
▁米	-7314
乐器	-7315
镜子	-7316
微波	-7317
在全国	-7318
当选	-7319
版权	-7320
iew	-7321
▁是的	-7322
家协会	-7323
液晶	-7324
和一个	-7325
社会科学	-7326
乘坐	-7327
奉献	-7328
越来越多	-7329
客运	-7330
3.0	-7331
▁任	-7332
可以考虑	-7333
黄河	-7334
星星	-7335
str	-7336
陕西省	-7337
拉克	-7338
1995	-7339
美国的	-7340
叫我	-7341
排水	-7342
四川省	-7343
不会有	-7344
解决问题	-7345
缓存	-7346
抛弃	-7347
▁回	-7348
规章	-7349
IV	-7350
▁额	-7351
支部	-7352
群岛	-7353
露出	-7354
▁合肥	-7355
死后	-7356
son	-7357
的知识	-7358
师生	-7359
▁target	-7360
是一名	-7361
中期	-7362
新增	-7363
潮流	-7364
雅思	-7365
父母的	-7366
头脑	-7367
呕吐	-7368
特色的	-7369
都不能	-7370
制冷	-7371
储备	-7372
物种	-7373
计量	-7374
这是一个	-7375
片的	-7376
骗子	-7377
谈判	-7378
产物	-7379
化合物	-7380
诊治	-7381
比你	-7382
und	-7383
却不	-7384
,,,	-7385
出手	-7386
显存	-7387
观音	-7388
iPod	-7389
一番	-7390
从来没有	-7391
中原	-7392
带来了	-7393
民众	-7394
誉为	-7395
十条	-7396
人说	-7397
报纸	-7398
熬夜	-7399
通俗	-7400
腹泻	-7401
的网络	-7402
自己在	-7403
武术	-7404
能力和	-7405
动脉	-7406
笑话	-7407
▁此时	-7408
变为	-7409
▁1999	-7410
nbsp	-7411
妇科	-7412
建国	-7413
赢得	-7414
做饭	-7415
线下	-7416
手中	-7417
per	-7418
妙的	-7419
之心	-7420
领取	-7421
GM	-7422
混凝土	-7423
好人	-7424
特殊的	-7425
▁选择	-7426
分别是	-7427
这里的	-7428
▁地址	-7429
股权	-7430
工会	-7431
now	-7432
中医药	-7433
觉得很	-7434
光的	-7435
▁庆	-7436
▁武汉	-7437
我们在	-7438
意义的	-7439
到来	-7440
大规模	-7441
不给	-7442
TC	-7443
泡沫	-7444
▁所谓	-7445
多月	-7446
-02	-7447
女方	-7448
350	-7449
又能	-7450
科学与	-7451
送给	-7452
直至	-7453
已成为	-7454
时机	-7455
注意力	-7456
监狱	-7457
老实	-7458
难题	-7459
线性	-7460
内心的	-7461
预期	-7462
blank	-7463
合作作品	-7464
深受	-7465
特种	-7466
补丁	-7467
▁ex	-7468
物资	-7469
说服	-7470
节日	-7471
要想	-7472
办事处	-7473
儿的	-7474
事务所	-7475
价值的	-7476
饲料	-7477
北大	-7478
糖尿病	-7479
:16	-7480
的说法	-7481
期货	-7482
常识	-7483
条件的	-7484
我就不	-7485
管辖	-7486
▁无论	-7487
十万	-7488
出一个	-7489
了啊	-7490
大胆	-7491
六年	-7492
脑袋	-7493
可行	-7494
最新的	-7495
高压	-7496
编曲	-7497
▁第六章	-7498
pt	-7499
慈善	-7500
红外	-7501
优美	-7502
错的	-7503
海关	-7504
防火	-7505
Java	-7506
太高	-7507
娃娃	-7508
邮政	-7509
高铁	-7510
袭击	-7511
只要你	-7512
▁展开	-7513
太平洋	-7514
花的	-7515
过去的	-7516
天生	-7517
疗法	-7518
卡的	-7519
湖南省	-7520
引入	-7521
根廷	-7522
散文	-7523
▁郭	-7524
告诉他	-7525
沃尔	-7526
毛泽	-7527
理工大学	-7528
影响力	-7529
外形	-7530
用人	-7531
看上去	-7532
欺骗	-7533
一共	-7534
子弹	-7535
感激	-7536
三级	-7537
的对	-7538
尸体	-7539
人对	-7540
童年	-7541
的核心	-7542
隔壁	-7543
.00	-7544
静脉	-7545
借助	-7546
比如说	-7547
▁978	-7548
风云	-7549
的女性	-7550
▁我现在	-7551
调理	-7552
MM	-7553
的生产	-7554
不通	-7555
重建	-7556
画的	-7557
鲁迅	-7558
想做	-7559
生动	-7560
风雨	-7561
的机	-7562
网游	-7563
增大	-7564
▁★	-7565
陆军	-7566
心思	-7567
结尾	-7568
▁百	-7569
之道	-7570
付费	-7571
3.2	-7572
6000	-7573
一般都是	-7574
时不	-7575
插入	-7576
说到	-7577
▁有的	-7578
▁安徽	-7579
圈子	-7580
ics	-7581
科技大学	-7582
▁苹果	-7583
▁22	-7584
半天	-7585
落地	-7586
▁普通	-7587
erv	-7588
▁泻药	-7589
毛泽东	-7590
却又	-7591
="_	-7592
高清	-7593
睡着	-7594
。。。。。	-7595
约束	-7596
升高	-7597
整形	-7598
总额	-7599
次的	-7600
评选	-7601
汉字	-7602
多媒体	-7603
杰克	-7604
后面的	-7605
研究员	-7606
民事	-7607
狮子	-7608
进而	-7609
▁秦	-7610
局面	-7611
二维	-7612
跳舞	-7613
发酵	-7614
这场	-7615
▁合	-7616
了解一下	-7617
包容	-7618
听了	-7619
嘉宾	-7620
约会	-7621
官方帐号	-7622
的原	-7623
16]	-7624
OD	-7625
各有	-7626
▁//	-7627
UN	-7628
备份	-7629
气管	-7630
见了	-7631
人员的	-7632
失业	-7633
本土	-7634
摩托车	-7635
年至	-7636
中部	-7637
童话	-7638
缓慢	-7639
忽视	-7640
离职	-7641
iPad	-7642
要点	-7643
稳定的	-7644
杰出	-7645
影响的	-7646
rc	-7647
电台	-7648
着你	-7649
志愿者	-7650
赋予	-7651
朋友的	-7652
怀孕了	-7653
在那里	-7654
CT	-7655
称呼	-7656
:"	-7657
健康的	-7658
斯基	-7659
观赏	-7660
▁音乐	-7661
有意思	-7662
回了	-7663
不幸	-7664
lay	-7665
西医	-7666
繁荣	-7667
杰伦	-7668
心动	-7669
变量	-7670
饲养	-7671
拟订	-7672
▁艾	-7673
▁到了	-7674
高层	-7675
他对	-7676
生殖	-7677
▁de	-7678
实质	-7679
大事	-7680
最小	-7681
龙头	-7682
先锋	-7683
综合性	-7684
列入	-7685
观测	-7686
评审	-7687
刻意	-7688
却被	-7689
哥们	-7690
我一	-7691
进出口	-7692
生命的	-7693
步枪	-7694
酱油	-7695
路口	-7696
的是什么	-7697
网吧	-7698
管理局登记成立	-7699
也都	-7700
留言	-7701
说要	-7702
庐山	-7703
▁简	-7704
踏实	-7705
长相	-7706
知的	-7707
▁[10]	-7708
▁Ex	-7709
不怎么	-7710
批判	-7711
珠宝	-7712
燃料	-7713
坚强	-7714
▁淘宝	-7715
还是会	-7716
有机会	-7717
the	-7718
基金会	-7719
发售	-7720
▁全村	-7721
助手	-7722
安置	-7723
湿度	-7724
务工	-7725
某一	-7726
锈钢	-7727
触摸	-7728
立马	-7729
而又	-7730
战队	-7731
弥补	-7732
少许	-7733
职业生涯	-7734
首届	-7735
参照	-7736
果实	-7737
▁孩子	-7738
之日起	-7739
商量	-7740
就是要	-7741
的一次	-7742
用法	-7743
orld	-7744
讲话	-7745
借口	-7746
签署	-7747
威力	-7748
结束了	-7749
老年人	-7750
▁远	-7751
受害	-7752
法制	-7753
开玩笑	-7754
外地	-7755
男方	-7756
这一切	-7757
万亩	-7758
AMD	-7759
温馨	-7760
du	-7761
su	-7762
可谓	-7763
异的	-7764
工作中	-7765
大图	-7766
灰色	-7767
自私	-7768
海上	-7769
参观	-7770
▁注	-7771
借鉴	-7772
理学	-7773
陆续	-7774
台词	-7775
模板	-7776
还算	-7777
750	-7778
2.4	-7779
菲律宾	-7780
▁60	-7781
评分	-7782
科大学	-7783
人民代表大会	-7784
时间内	-7785
独立的	-7786
当做	-7787
是这样	-7788
高一	-7789
神的	-7790
▁int	-7791
▁作为一个	-7792
填写	-7793
▁就像	-7794
-9	-7795
1994	-7796
▁90	-7797
入侵	-7798
帮帮忙	-7799
之际	-7800
EM	-7801
1.0	-7802
国家队	-7803
ree	-7804
夜晚	-7805
亲密	-7806
残酷	-7807
生物学	-7808
单位的	-7809
房地产开发	-7810
eam	-7811
变动	-7812
网址	-7813
春节	-7814
的爱情	-7815
抖音	-7816
字符	-7817
使人	-7818
少吃	-7819
的男生	-7820
拼命	-7821
全书	-7822
抱歉	-7823
抽烟	-7824
▁曾经	-7825
喜好	-7826
孔子	-7827
出生的	-7828
▁带	-7829
表现出	-7830
失眠	-7831
▁已经	-7832
附件	-7833
党委书记	-7834
负面	-7835
也比较	-7836
核算	-7837
应用程序	-7838
是想	-7839
小学生	-7840
发言	-7841
跨国	-7842
体检	-7843
的女儿	-7844
标识	-7845
科技进步	-7846
▁甲	-7847
三百	-7848
渗透	-7849
为中国	-7850
的视频	-7851
可能的	-7852
强势	-7853
尔的	-7854
等你	-7855
到位	-7856
太极	-7857
▁你要	-7858
保守	-7859
不信	-7860
这家	-7861
修建	-7862
一根	-7863
过年	-7864
起诉	-7865
Sh	-7866
可能性	-7867
资助	-7868
是这样的	-7869
2-3	-7870
全年	-7871
万一	-7872
移植	-7873
预警	-7874
强烈的	-7875
把自己的	-7876
水平的	-7877
举个	-7878
好事	-7879
?(	-7880
▁血	-7881
保险公司	-7882
哪种	-7883
硕士学位	-7884
斯卡	-7885
的区别	-7886
容器	-7887
用地	-7888
的项目	-7889
晚会	-7890
Al	-7891
真人	-7892
PK	-7893
的大小	-7894
▁附录	-7895
无非	-7896
0.00	-7897
比较好的	-7898
同比增长	-7899
灯光	-7900
被迫	-7901
朋友们	-7902
副作用	-7903
爱的人	-7904
!!!!!!!!	-7905
1.4	-7906
光学	-7907
▁全国	-7908
明朝	-7909
问题了	-7910
深深	-7911
有关规定	-7912
很多的	-7913
国民党	-7914
少数民族	-7915
提出的	-7916
畜牧	-7917
丧失	-7918
就得	-7919
章程	-7920
市民	-7921
主任医师	-7922
为他	-7923
▁24	-7924
台式	-7925
就是个	-7926
老鼠	-7927
me	-7928
友情	-7929
区内	-7930
面子	-7931
花生	-7932
越南	-7933
,8	-7934
瑞士	-7935
半小时	-7936
严肃	-7937
▁考	-7938
没用	-7939
10000	-7940
的教育	-7941
的你	-7942
癌症	-7943
板块	-7944
都不知道	-7945
不定	-7946
产地	-7947
昆明	-7948
了她	-7949
每个月	-7950
封面	-7951
支援	-7952
三等奖	-7953
大批	-7954
的神	-7955
统筹	-7956
必备	-7957
莫名其	-7958
门槛	-7959
co	-7960
没关系	-7961
变态	-7962
de	-7963
潜在	-7964
">	-7965
明白了	-7966
丢失	-7967
户籍	-7968
座椅	-7969
找一个	-7970
宾馆	-7971
万里	-7972
更名为	-7973
分别为	-7974
崇拜	-7975
OSS	-7976
只是一个	-7977
跑了	-7978
这也	-7979
▁21	-7980
分会	-7981
▁}	-7982
爱心	-7983
的热	-7984
两条	-7985
克力	-7986
进球	-7987
向往	-7988
we	-7989
变速	-7990
否认	-7991
突击	-7992
马克思	-7993
橡胶	-7994
水库	-7995
成立了	-7996
我该怎么办	-7997
7、	-7998
的安全	-7999
固定资产	-8000
下车	-8001
▁亚	-8002
谢谢了	-8003
满了	-8004
等工作	-8005
标准化	-8006
排放	-8007
线条	-8008
然后就	-8009
制成	-8010
绩效	-8011
ous	-8012
博士学位	-8013
我把	-8014
笔画	-8015
已经被	-8016
跑到	-8017
三角形	-8018
瑞典	-8019
蝴蝶	-8020
最喜欢	-8021
他还	-8022
、、	-8023
从不	-8024
德镇	-8025
成为一个	-8026
洛阳	-8027
早餐	-8028
防水	-8029
▁13.	-8030
同类	-8031
主要的	-8032
证实	-8033
常委会	-8034
地带	-8035
足球俱乐部	-8036
收取	-8037
桥梁	-8038
帽子	-8039
】:	-8040
姿态	-8041
1.6	-8042
=1	-8043
体温	-8044
两大	-8045
外界	-8046
上看	-8047
在职	-8048
那个时候	-8049
▁我有	-8050
感应	-8051
要比	-8052
警告	-8053
▁软件	-8054
未能	-8055
离开了	-8056
不堪	-8057
就这么	-8058
代言	-8059
你需要	-8060
导向	-8061
你应该	-8062
从中	-8063
家用	-8064
起源	-8065
仓库	-8066
▁1998	-8067
复仇	-8068
月底	-8069
建有	-8070
Th	-8071
会导致	-8072
刷机	-8073
球迷	-8074
直升机	-8075
机构的	-8076
——————	-8077
股市	-8078
了一种	-8079
便捷	-8080
后台	-8081
▁截至	-8082
白了	-8083
精通	-8084
占用	-8085
拍卖	-8086
,20	-8087
指甲	-8088
▁我国	-8089
不相	-8090
想要的	-8091
半个	-8092
教堂	-8093
而非	-8094
分割线	-8095
曾在	-8096
教研	-8097
殖民	-8098
▁版	-8099
只需	-8100
版本的	-8101
免费的	-8102
机电	-8103
真理	-8104
▁00	-8105
副本	-8106
福建省	-8107
吸血	-8108
以为是	-8109
如果不是	-8110
因子	-8111
前列	-8112
当下	-8113
万物	-8114
这个是	-8115
老虎	-8116
心理咨询	-8117
叙述	-8118
就用	-8119
要做	-8120
进行的	-8121
得到的	-8122
跨越	-8123
参赛	-8124
不已	-8125
IG	-8126
▁两个	-8127
会让	-8128
玛丽	-8129
太过	-8130
排出	-8131
球场	-8132
月出生	-8133
那样的	-8134
▁简单	-8135
rip	-8136
嘻嘻	-8137
▁title	-8138
取名	-8139
年末	-8140
调控	-8141
及其他	-8142
建设的	-8143
放弃了	-8144
▁星期	-8145
脆弱	-8146
兔子	-8147
唱的	-8148
看电影	-8149
初始	-8150
乐园	-8151
17]	-8152
人有	-8153
比喻	-8154
件事情	-8155
qb	-8156
节省	-8157
信念	-8158
起步	-8159
▁1,	-8160
得不到	-8161
技术和	-8162
舆论	-8163
不管是	-8164
▁不用	-8165
不被	-8166
一脸	-8167
吃什么	-8168
1993	-8169
为之	-8170
,18	-8171
行李	-8172
不含	-8173
介质	-8174
纳入	-8175
123	-8176
纳米	-8177
还有很多	-8178
ci	-8179
长达	-8180
来自于	-8181
▁14.	-8182
▁迪	-8183
同行	-8184
170	-8185
完全可以	-8186
江西省	-8187
爱我	-8188
之子	-8189
懂的	-8190
说明书	-8191
不愿	-8192
助攻	-8193
家中	-8194
插件	-8195
安全的	-8196
逃避	-8197
魔术	-8198
soft	-8199
DS	-8200
只想	-8201
佳能	-8202
手上	-8203
老大	-8204
反抗	-8205
看我	-8206
喜欢他	-8207
说不定	-8208
教训	-8209
哪儿	-8210
研究的	-8211
与其他	-8212
(4	-8213
优秀回答者	-8214
系的	-8215
套装	-8216
ife	-8217
但是在	-8218
事后	-8219
自在	-8220
蜘蛛	-8221
适当的	-8222
100%	-8223
详细的	-8224
▁这么	-8225
上涨	-8226
大三	-8227
主播	-8228
▁广州	-8229
拍的	-8230
刷新	-8231
船舶	-8232
各方面	-8233
iphone	-8234
1990	-8235
射手	-8236
生活在	-8237
架空历史	-8238
点击查看	-8239
陌生人	-8240
总理	-8241
(《	-8242
的市场	-8243
▁已认证的	-8244
220	-8245
有一定的	-8246
▁已认证的官方帐号	-8247
con	-8248
吃完	-8249
我相信	-8250
教会	-8251
去除	-8252
主义者	-8253
口感	-8254
大队	-8255
度过	-8256
高血压	-8257
作了	-8258
服务中心	-8259
中外	-8260
叔叔	-8261
use	-8262
到什么	-8263
(10	-8264
当然是	-8265
和技术	-8266
能让	-8267
礼貌	-8268
引领	-8269
慢慢的	-8270
定价	-8271
类似的	-8272
票房	-8273
▁专辑	-8274
三千	-8275
得好	-8276
猫咪	-8277
又要	-8278
加分	-8279
的花	-8280
考证	-8281
item	-8282
给我的	-8283
你知道	-8284
▁江	-8285
▁雷	-8286
的思想	-8287
讲述了	-8288
腐蚀	-8289
用力	-8290
治安	-8291
之一的	-8292
给出	-8293
征服	-8294
▁Com	-8295
复兴	-8296
我所	-8297
得起	-8298
僵尸	-8299
LED	-8300
搅拌	-8301
▁no	-8302
粒子	-8303
三四	-8304
不顾	-8305
进度	-8306
市政	-8307
提起	-8308
情怀	-8309
修炼	-8310
端口	-8311
但也	-8312
月任	-8313
致命	-8314
交互	-8315
聚会	-8316
清单	-8317
嫌弃	-8318
较低	-8319
光线	-8320
条款	-8321
莲花	-8322
否定	-8323
有无	-8324
灾害	-8325
不合	-8326
机身	-8327
注定	-8328
概括	-8329
的学校	-8330
看下	-8331
ifi	-8332
座位	-8333
▁如今	-8334
▁电子	-8335
年毕业于	-8336
大桥	-8337
太空	-8338
又不是	-8339
是需要	-8340
作词	-8341
概况	-8342
马拉	-8343
TS	-8344
协同	-8345
公积	-8346
化了	-8347
排行榜	-8348
外表	-8349
着他	-8350
到最后	-8351
二代	-8352
自考	-8353
起义	-8354
放置	-8355
十一条	-8356
直属	-8357
较好	-8358
极大	-8359
标记	-8360
有关的	-8361
公交车	-8362
▁”“	-8363
立法	-8364
要求的	-8365
3:	-8366
间接	-8367
农产品	-8368
PE	-8369
而出	-8370
身心	-8371
任命	-8372
公正	-8373
玩法	-8374
闪光	-8375
拥抱	-8376
▁未	-8377
▁首	-8378
没有了	-8379
并未	-8380
不建议	-8381
间隔	-8382
被打	-8383
tern	-8384
退役	-8385
达人	-8386
还行	-8387
一会儿	-8388
信息技术	-8389
西兰	-8390
折磨	-8391
lic	-8392
悄悄	-8393
挣扎	-8394
霉素	-8395
修行	-8396
巩固	-8397
为其	-8398
的国家	-8399
学长	-8400
匿名	-8401
巨人	-8402
背后的	-8403
断了	-8404
自带	-8405
透露	-8406
+2	-8407
▁Windows	-8408
▁飞	-8409
与人	-8410
▁郑	-8411
▁!	-8412
▁伊	-8413
▁技术	-8414
同学们	-8415
》;	-8416
套餐	-8417
很强	-8418
自然的	-8419
高原	-8420
你对	-8421
通话	-8422
口红	-8423
VS	-8424
不等	-8425
表现为	-8426
就不是	-8427
工业大学	-8428
款式	-8429
改成	-8430
法律法规	-8431
▁省	-8432
到我	-8433
词典	-8434
公安局	-8435
】,	-8436
1.8	-8437
反思	-8438
火的	-8439
▁啊	-8440
圣诞	-8441
加重	-8442
年中国	-8443
温泉	-8444
螺旋	-8445
row	-8446
器材	-8447
go	-8448
并不能	-8449
的大型	-8450
就更	-8451
urn	-8452
才华	-8453
的下	-8454
十二条	-8455
放射	-8456
您好	-8457
理论与	-8458
违约	-8459
亮点	-8460
春天	-8461
Ex	-8462
▁电源	-8463
言语	-8464
满满	-8465
胡萝卜	-8466
的城市	-8467
几千	-8468
oug	-8469
,7	-8470
一号	-8471
世的	-8472
17.	-8473
操控	-8474
正经	-8475
简洁	-8476
情形	-8477
是什么原因	-8478
表格	-8479
不同意	-8480
央视	-8481
在自己	-8482
一小	-8483
委书记	-8484
当今	-8485
开创	-8486
噪音	-8487
▁价格	-8488
空白	-8489
公子	-8490
发音	-8491
余额	-8492
管家	-8493
不死	-8494
小孩子	-8495
场面	-8496
alink	-8497
▁假如	-8498
等多种	-8499
忍受	-8500
iOS	-8501
俗称	-8502
却没有	-8503
市人民政府	-8504
ky	-8505
遇到过	-8506
全区	-8507
▁云	-8508
个人觉得	-8509
参考资料	-8510
困扰	-8511
可供	-8512
要把	-8513
中所	-8514
结算	-8515
ould	-8516
细致	-8517
良心	-8518
一夜	-8519
ream	-8520
望采纳	-8521
热闹	-8522
数十	-8523
领袖	-8524
联合会	-8525
ikqb	-8526
宽度	-8527
讲师	-8528
怀念	-8529
▁布	-8530
-15	-8531
不断地	-8532
右手	-8533
一起去	-8534
和高	-8535
红包	-8536
点击查看大图	-8537
的经济	-8538
痕迹	-8539
猜测	-8540
DDR	-8541
他妈	-8542
阿根廷	-8543
价钱	-8544
又名	-8545
▁看看	-8546
也会有	-8547
女主角	-8548
▁we	-8549
约为	-8550
能用	-8551
走在	-8552
短暂	-8553
难得	-8554
签名	-8555
aby	-8556
是比较	-8557
嘿嘿	-8558
乳房	-8559
延迟	-8560
城的	-8561
公社	-8562
本科生	-8563
女士	-8564
精细	-8565
说她	-8566
柔软	-8567
上门	-8568
▁love	-8569
一杯	-8570
压抑	-8571
命题	-8572
▁追问	-8573
高峰	-8574
夫妇	-8575
的人员	-8576
▁第七章	-8577
手机的	-8578
中国移动	-8579
震撼	-8580
itt	-8581
画画	-8582
篮板	-8583
信息的	-8584
▁Ar	-8585
和尚	-8586
奖学金	-8587
DC	-8588
▁夜	-8589
岁了	-8590
是通过	-8591
制片	-8592
▁all	-8593
?”	-8594
截止	-8595
保湿	-8596
oro	-8597
分成	-8598
be	-8599
挣钱	-8600
幼稚	-8601
佛山	-8602
风光	-8603
机型	-8604
热的	-8605
▁欧	-8606
打架	-8607
惩罚	-8608
皇上	-8609
受理	-8610
叶片	-8611
前来	-8612
HP	-8613
科学的	-8614
.......	-8615
("	-8616
吃药	-8617
他和	-8618
戒指	-8619
▁II	-8620
让孩子	-8621
和服务	-8622
也没什么	-8623
描绘	-8624
企业管理	-8625
做不到	-8626
朝廷	-8627
一中	-8628
EP	-8629
”)	-8630
再用	-8631
大海	-8632
成交	-8633
系列的	-8634
这样做	-8635
▁本来	-8636
18.	-8637
的时候就	-8638
了自己的	-8639
跟随	-8640
届全国	-8641
了起来	-8642
OM	-8643
注意事项	-8644
债券	-8645
饱和	-8646
之旅	-8647
7)	-8648
他们在	-8649
掉的	-8650
▁同年	-8651
流氓	-8652
▁什么是	-8653
会儿	-8654
动词	-8655
▁go	-8656
▁发展	-8657
果断	-8658
▁o	-8659
失误	-8660
▁我就	-8661
衡量	-8662
过来的	-8663
诱惑	-8664
原因是	-8665
▁第五节	-8666
ition	-8667
热血	-8668
ose	-8669
以其	-8670
管理部门	-8671
平板	-8672
沙发	-8673
▁哈	-8674
发作	-8675
了点	-8676
开发的	-8677
人们的	-8678
▁晚上	-8679
方形	-8680
溶解	-8681
乘客	-8682
长久	-8683
也行	-8684
滴滴	-8685
相连	-8686
巧克力	-8687
我用	-8688
激发	-8689
和个人	-8690
沿海	-8691
1-2	-8692
所得税	-8693
的人们	-8694
完结	-8695
暧昧	-8696
的角色	-8697
就不用	-8698
▁应用	-8699
不明白	-8700
原文	-8701
染色	-8702
不支持	-8703
发型	-8704
港口	-8705
震惊	-8706
风暴	-8707
充满了	-8708
威廉	-8709
上大学	-8710
投影	-8711
一次性	-8712
我们要	-8713
错过	-8714
irl	-8715
▁甚至	-8716
迅雷	-8717
了一次	-8718
正当	-8719
▁有时候	-8720
倒入	-8721
阴谋	-8722
功能的	-8723
法人	-8724
求助	-8725
帮到你	-8726
一心	-8727
误会	-8728
▁收	-8729
1988	-8730
头痛	-8731
inux	-8732
lash	-8733
客车	-8734
▁40	-8735
军人	-8736
比起	-8737
做人	-8738
什么样	-8739
▁◆	-8740
七年	-8741
晋升	-8742
带上	-8743
.,	-8744
葡萄酒	-8745
躺在	-8746
岁时	-8747
热点	-8748
-25	-8749
▁向	-8750
▁英国	-8751
主演的	-8752
把她	-8753
用户的	-8754
主力	-8755
▁have	-8756
纠正	-8757
1992	-8758
★★	-8759
仪表	-8760
点点	-8761
的艺术	-8762
知识点	-8763
前者	-8764
成语	-8765
分工	-8766
指责	-8767
保卫	-8768
所在城市	-8769
华人	-8770
总量	-8771
自习	-8772
极大的	-8773
论证	-8774
遭受	-8775
内分泌	-8776
既有	-8777
美观	-8778
演艺	-8779
▁设计	-8780
香水	-8781
决定了	-8782
微信公众号	-8783
3.1	-8784
深化	-8785
地理位置	-8786
▁你是	-8787
底层	-8788
▁32	-8789
▁第二百	-8790
的活动	-8791
裤子	-8792
在日本	-8793
月生	-8794
火焰	-8795
建材	-8796
曲目	-8797
高二	-8798
▁凡	-8799
鸡汤	-8800
大楼	-8801
▁普	-8802
不当	-8803
很多时候	-8804
刚才	-8805
月参加工作	-8806
名校	-8807
零件	-8808
要多	-8809
名叫	-8810
梦幻	-8811
支配	-8812
筛选	-8813
的高度	-8814
ogle	-8815
▁小说	-8816
很高的	-8817
这事	-8818
英雄联盟	-8819
星的	-8820
有人说	-8821
柠檬	-8822
经纪人	-8823
精选	-8824
可以做	-8825
是无	-8826
加点	-8827
身上的	-8828
▁面对	-8829
拿来	-8830
巴巴	-8831
百合	-8832
CG	-8833
的本	-8834
法则	-8835
大声	-8836
个月的	-8837
证件	-8838
▁----	-8839
清醒	-8840
▁经济	-8841
碎片	-8842
更改	-8843
电阻	-8844
那个人	-8845
个别	-8846
4.5	-8847
▁[11]	-8848
可以把	-8849
的关键	-8850
之王	-8851
立足	-8852
均有	-8853
控股	-8854
各样的	-8855
已被	-8856
备考	-8857
▁你在	-8858
~~~~~~~~	-8859
也算	-8860
在其	-8861
▁方	-8862
理论上	-8863
报复	-8864
去看看	-8865
篇小说	-8866
之力	-8867
20.	-8868
芝麻	-8869
是不能	-8870
ivers	-8871
对称	-8872
性强	-8873
嫌疑	-8874
最强	-8875
▁朋友	-8876
星球	-8877
anc	-8878
娱乐圈	-8879
牡丹	-8880
▁某	-8881
副会长	-8882
音响	-8883
▁DDR	-8884
对的	-8885
矿产	-8886
PG	-8887
在上海	-8888
或不	-8889
3.3	-8890
修理	-8891
大家的	-8892
但却	-8893
去买	-8894
ium	-8895
的具体	-8896
怎么看	-8897
美白	-8898
▁from	-8899
任何人	-8900
心中的	-8901
知道自己	-8902
克的	-8903
"。	-8904
RS	-8905
主导	-8906
沉淀	-8907
TF	-8908
运营商	-8909
好玩	-8910
就是你	-8911
然后在	-8912
▁8、	-8913
店里	-8914
笑容	-8915
▁备注	-8916
一体化	-8917
女王	-8918
万美元	-8919
▁教育	-8920
器械	-8921
角落	-8922
就需要	-8923
星人	-8924
的黑	-8925
的主题	-8926
UI	-8927
取出	-8928
所致	-8929
十三条	-8930
历史的	-8931
终结	-8932
增多	-8933
▁读	-8934
中年	-8935
透过	-8936
相差	-8937
hh	-8938
▁不同	-8939
眼中	-8940
此同时	-8941
▁up	-8942
一刻	-8943
急急	-8944
几个人	-8945
的一部	-8946
▁通常	-8947
组长	-8948
时间和	-8949
一辆	-8950
他自己	-8951
业的	-8952
千万别	-8953
的一般	-8954
体现了	-8955
留学生	-8956
糟糕	-8957
▁配音	-8958
军团	-8959
线索	-8960
可以看到	-8961
240	-8962
▁很多人	-8963
肠胃	-8964
就应该	-8965
威尔	-8966
已经有	-8967
想起来	-8968
二战	-8969
雕塑	-8970
一般在	-8971
选择的	-8972
(3)	-8973
刊物	-8974
▁con	-8975
多为	-8976
主义的	-8977
事了	-8978
▁身高	-8979
125	-8980
甜蜜	-8981
df	-8982
显示屏	-8983
小姐姐	-8984
真爱	-8985
应用于	-8986
给他们	-8987
后卫	-8988
它们的	-8989
应付	-8990
来得	-8991
情景	-8992
录制	-8993
▁莫	-8994
进取	-8995
way	-8996
轮胎	-8997
不过是	-8998
的歌曲	-8999
LE	-9000
实训	-9001
SBN	-9002
SO	-9003
重庆市	-9004
懒得	-9005
▁—	-9006
抽象	-9007
侵略	-9008
班的	-9009
普通话	-9010
一笑	-9011
垄断	-9012
▁'	-9013
对付	-9014
马来	-9015
肯定会	-9016
ise	-9017
之意	-9018
机箱	-9019
救援	-9020
干脆	-9021
活的	-9022
输送	-9023
出色	-9024
澳门	-9025
模具	-9026
到一个	-9027
结婚了	-9028
修订	-9029
查找	-9030
太多的	-9031
在她	-9032
克拉	-9033
左手	-9034
备用	-9035
受到了	-9036
拿出来	-9037
拉丁	-9038
影子	-9039
电影节	-9040
什么意思	-9041
太小	-9042
嫉妒	-9043
▁子	-9044
时常	-9045
一副	-9046
没那么	-9047
▁好像	-9048
环境的	-9049
轰炸	-9050
一无	-9051
伊斯	-9052
这样一个	-9053
极度	-9054
命名为	-9055
售价	-9056
立场	-9057
GHz	-9058
增加值	-9059
底下	-9060
ount	-9061
变换	-9062
码头	-9063
0.1	-9064
我只是	-9065
食欲	-9066
硬化	-9067
充实	-9068
南海	-9069
历代	-9070
全面的	-9071
请教	-9072
▁蓝	-9073
协作	-9074
给的	-9075
调味	-9076
▁AMD	-9077
政权	-9078
侵犯	-9079
发性	-9080
平米	-9081
很正常	-9082
▁马尔	-9083
谈谈	-9084
日本人	-9085
▁ISBN	-9086
广阔	-9087
旅客	-9088
早点	-9089
也可能	-9090
了呢	-9091
高等学校	-9092
SE	-9093
党校	-9094
福州	-9095
明年	-9096
▁冷	-9097
有多大	-9098
渣男	-9099
首批	-9100
运算	-9101
思念	-9102
报价	-9103
第十	-9104
研究会	-9105
我发现	-9106
还是比较	-9107
而被	-9108
排卵期	-9109
的空间	-9110
博客	-9111
▁拥有	-9112
深处	-9113
香味	-9114
龙的	-9115
雕刻	-9116
就别	-9117
认识的	-9118
定律	-9119
市场营销	-9120
充值	-9121
分之	-9122
转身	-9123
万的	-9124
终极	-9125
学霸	-9126
奢侈	-9127
大二	-9128
水准	-9129
反驳	-9130
星座	-9131
侧面	-9132
名牌	-9133
在本	-9134
不分	-9135
摄影师	-9136
的方向	-9137
▁特别	-9138
的文化	-9139
政法	-9140
ational	-9141
与管理	-9142
研讨	-9143
pic	-9144
会觉得	-9145
舍不得	-9146
固体	-9147
不锈钢	-9148
尔特	-9149
晚期	-9150
再见	-9151
地形	-9152
格斗	-9153
轮回	-9154
年获	-9155
实际情况	-9156
对你的	-9157
传达	-9158
常年	-9159
的感情	-9160
漏洞	-9161
几句	-9162
人大常委会	-9163
产品质量	-9164
学到	-9165
宁夏	-9166
做成	-9167
扶持	-9168
的味道	-9169
介意	-9170
派出所	-9171
四周	-9172
For	-9173
找出	-9174
分布于	-9175
顶尖	-9176
一个个	-9177
▁And	-9178
选拔	-9179
准则	-9180
2500	-9181
yth	-9182
24]	-9183
公积金	-9184
开门	-9185
信誉	-9186
igh	-9187
▁最终	-9188
新兴	-9189
▁科	-9190
曾任	-9191
▁正常	-9192
书面	-9193
依次	-9194
吃过	-9195
▁男朋友	-9196
的无	-9197
▁开始	-9198
猪肉	-9199
▁千	-9200
如有	-9201
十四条	-9202
出版社出版	-9203
余篇	-9204
胶囊	-9205
)-	-9206
最重要的是	-9207
促销	-9208
气势	-9209
▁故	-9210
核桃	-9211
这方面	-9212
8000	-9213
质的	-9214
量子	-9215
在我们	-9216
下方	-9217
均可	-9218
经验的	-9219
非常好	-9220
微量	-9221
炸弹	-9222
屏蔽	-9223
不符合	-9224
我才	-9225
还可	-9226
经济的	-9227
举例	-9228
年起	-9229
贫血	-9230
难免	-9231
省政府	-9232
亮的	-9233
推荐的	-9234
irect	-9235
右键	-9236
可以让	-9237
日制	-9238
哪位	-9239
容积	-9240
交付	-9241
机体	-9242
问题是	-9243
▁市	-9244
隐私	-9245
一手	-9246
你所	-9247
历任	-9248
自称	-9249
同情	-9250
为我	-9251
脖子	-9252
大臣	-9253
开朗	-9254
ote	-9255
的话题	-9256
教的	-9257
折腾	-9258
水面	-9259
学业	-9260
IOS	-9261
去掉	-9262
▁[12]	-9263
写出	-9264
街头	-9265
畸形	-9266
潜艇	-9267
完全没有	-9268
保护区	-9269
▁1997	-9270
假装	-9271
很低	-9272
单纯的	-9273
(5	-9274
变革	-9275
报表	-9276
不是一个	-9277
骨头	-9278
中专	-9279
五百	-9280
切成	-9281
剧院	-9282
医科大学	-9283
有益	-9284
终究	-9285
好感	-9286
TP	-9287
做完	-9288
全民	-9289
质保	-9290
ath	-9291
了这个	-9292
▁pr	-9293
你这	-9294
还有什么	-9295
反感	-9296
101	-9297
▁当你	-9298
尾巴	-9299
机遇	-9300
毫克	-9301
近视	-9302
▁难道	-9303
波兰	-9304
争夺	-9305
早晨	-9306
此次	-9307
红的	-9308
伯特	-9309
论述	-9310
▁图书	-9311
▁if	-9312
▁iPhone	-9313
清朝	-9314
人际	-9315
处在	-9316
男主角	-9317
疗效	-9318
的相关	-9319
在家里	-9320
暗恋	-9321
还想	-9322
克尔	-9323
到时候	-9324
专著	-9325
嘲笑	-9326
外卖	-9327
改革开放	-9328
必定	-9329
早日	-9330
门户	-9331
基部	-9332
发掘	-9333
阳县	-9334
宪法	-9335
副主任医师	-9336
主办	-9337
青海	-9338
ead	-9339
比较大	-9340
▁this	-9341
考了	-9342
碰撞	-9343
试用	-9344
购房	-9345
以后的	-9346
今后	-9347
每天都	-9348
机子	-9349
错误的	-9350
傻逼	-9351
反击	-9352
生了	-9353
▁高考	-9354
的双	-9355
更高的	-9356
氨基酸	-9357
不肯	-9358
这首	-9359
累了	-9360
变了	-9361
更好地	-9362
设备的	-9363
和自己	-9364
纪录片	-9365
他又	-9366
不准	-9367
可分为	-9368
AH	-9369
弯曲	-9370
眼的	-9371
按键	-9372
确立	-9373
的话就	-9374
室外	-9375
云南省	-9376
:15	-9377
最喜欢的	-9378
电脑上	-9379
动机	-9380
大叔	-9381
试卷	-9382
仲裁	-9383
台上	-9384
接入	-9385
应届	-9386
推出的	-9387
分手了	-9388
▁牛	-9389
的比	-9390
到底是	-9391
和对	-9392
店的	-9393
洛克	-9394
OV	-9395
辽宁省	-9396
前辈	-9397
而后	-9398
直观	-9399
步兵	-9400
民营	-9401
内有	-9402
感恩	-9403
物理学	-9404
bo	-9405
受益	-9406
焊接	-9407
海岸	-9408
就是为了	-9409
一两	-9410
贵州省	-9411
惊讶	-9412
总数	-9413
列为	-9414
一说	-9415
red	-9416
▁金融	-9417
便宜的	-9418
里程	-9419
就觉得	-9420
北京大学	-9421
▁最大	-9422
:1、	-9423
很可能	-9424
热门	-9425
秉承	-9426
23]	-9427
▁自由	-9428
香蕉	-9429
资源的	-9430
术后	-9431
的经历	-9432
的人都	-9433
不妨	-9434
▁长城	-9435
看他	-9436
▁数据	-9437
甚至是	-9438
自愿	-9439
高新技术	-9440
搭建	-9441
随之	-9442
日后	-9443
知名度	-9444
发展规划	-9445
十足	-9446
语气	-9447
造价	-9448
▁起	-9449
改变了	-9450
这个词	-9451
▁品牌	-9452
▁一切	-9453
在上	-9454
:「	-9455
古城	-9456
十年代	-9457
选中	-9458
▁15.	-9459
当我	-9460
>>	-9461
效力	-9462
姓氏	-9463
确实是	-9464
ower	-9465
一直是	-9466
武功	-9467
耽误	-9468
Android	-9469
合伙	-9470
学了	-9471
推迟	-9472
左边	-9473
Ar	-9474
结构的	-9475
Ad	-9476
分数线	-9477
▁(5)	-9478
2=	-9479
墨西	-9480
动了	-9481
右边	-9482
尽力	-9483
建筑物	-9484
删了	-9485
的支持	-9486
紫色	-9487
执着	-9488
BOSS	-9489
▁ne	-9490
制造业	-9491
有自己的	-9492
加载	-9493
菠菜	-9494
:20	-9495
和别人	-9496
ys	-9497
亲人	-9498
你会发现	-9499
生导师	-9500
ject	-9501
太阳能	-9502
相对于	-9503
的人才	-9504
第二季	-9505
▁深	-9506
处分	-9507
***	-9508
灵感	-9509
落的	-9510
男人的	-9511
哪有	-9512
较好的	-9513
烹饪	-9514
380	-9515
漂亮的	-9516
柏林	-9517
学姐	-9518
估价	-9519
经销	-9520
世上	-9521
供参考	-9522
一般来说	-9523
竣工	-9524
与你	-9525
日本的	-9526
▁父母	-9527
侵权	-9528
▁楼主	-9529
ouch	-9530
中学生	-9531
的心理	-9532
低温	-9533
身后	-9534
▁我说	-9535
▁one	-9536
是一位	-9537
ota	-9538
派的	-9539
▁这次	-9540
缩短	-9541
▁其它	-9542
的心情	-9543
是小	-9544
觉醒	-9545
发布的	-9546
欢喜	-9547
ings	-9548
是的	-9549
也不用	-9550
灌溉	-9551
冷漠	-9552
▁自然	-9553
▁An	-9554
分之一	-9555
富贵	-9556
与之	-9557
▁汽车	-9558
▁500	-9559
去过	-9560
行政区	-9561
客厅	-9562
终点	-9563
大使	-9564
轿车	-9565
门票	-9566
一行	-9567
倡导	-9568
全家	-9569
黑的	-9570
劳动合同	-9571
天后	-9572
▁想要	-9573
银河	-9574
紧紧	-9575
翅膀	-9576
还是在	-9577
丢了	-9578
庆祝	-9579
负债	-9580
50%	-9581
处置	-9582
金牌	-9583
人工智能	-9584
油腻	-9585
瀑布	-9586
的事实	-9587
星级	-9588
院士	-9589
这些人	-9590
轻微	-9591
段子	-9592
,15	-9593
仅仅是	-9594
也只是	-9595
纪律	-9596
压迫	-9597
援助	-9598
别说	-9599
检察院	-9600
▁冲	-9601
主人公	-9602
崛起	-9603
武侠	-9604
▁计算机	-9605
之家	-9606
声卡	-9607
背叛	-9608
有必要	-9609
log	-9610
阿拉伯	-9611
专注于	-9612
▁es	-9613
救助	-9614
高档	-9615
FC	-9616
云港	-9617
▁屏幕	-9618
器件	-9619
租房	-9620
提到的	-9621
埃及	-9622
木马	-9623
合唱	-9624
兰州	-9625
相继	-9626
▁视频	-9627
操纵	-9628
▁乔	-9629
追究	-9630
▁医生	-9631
1989	-9632
听见	-9633
隧道	-9634
杀毒软件	-9635
一下吧	-9636
瑜伽	-9637
有一点	-9638
创造了	-9639
建设项目	-9640
售后服务	-9641
五月	-9642
7.5	-9643
骨骼	-9644
人称	-9645
下属	-9646
为主要	-9647
▁代表	-9648
宝鸡	-9649
警方	-9650
率领	-9651
建筑工程	-9652
额外	-9653
岩石	-9654
原著	-9655
这些都是	-9656
灾难	-9657
路的	-9658
上次	-9659
就看	-9660
▁同样	-9661
为主的	-9662
模样	-9663
每个人的	-9664
借款	-9665
▁冰	-9666
材料的	-9667
卡尔	-9668
火山	-9669
女性的	-9670
▁半	-9671
单机	-9672
面粉	-9673
习惯了	-9674
国人	-9675
ohn	-9676
,9	-9677
确诊	-9678
不看	-9679
何时	-9680
BS	-9681
不利	-9682
该不该	-9683
Intel	-9684
十六条	-9685
墨西哥	-9686
手游	-9687
她就	-9688
有什么区别	-9689
有种	-9690
▁就算	-9691
ild	-9692
▁祝	-9693
任职	-9694
笑着	-9695
▁职业	-9696
▁我也是	-9697
续航	-9698
哪个好	-9699
试纸	-9700
加入了	-9701
▁入	-9702
的呢	-9703
饮水	-9704
的一面	-9705
病变	-9706
十五条	-9707
的女孩子	-9708
会使	-9709
学园	-9710
干了	-9711
朝阳	-9712
跪求	-9713
合肥市	-9714
组件	-9715
by	-9716
有大	-9717
认真的	-9718
赞同	-9719
本品	-9720
较少	-9721
有兴趣	-9722
合一	-9723
模范	-9724
实物	-9725
此之外	-9726
这块	-9727
olog	-9728
八年	-9729
实务	-9730
得不	-9731
2》	-9732
▁圣	-9733
出土	-9734
不确定	-9735
ner	-9736
自从	-9737
教育教学	-9738
▁网上	-9739
升本	-9740
节点	-9741
之星	-9742
自然村	-9743
穿过	-9744
▁路易	-9745
的需要	-9746
22]	-9747
指导下	-9748
重生	-9749
uk	-9750
预约	-9751
教科	-9752
要好	-9753
▁第八章	-9754
日至	-9755
成熟的	-9756
那位	-9757
▁这是一个	-9758
笔记本电脑	-9759
航空公司	-9760
的任务	-9761
武帝	-9762
帖子	-9763
刹车	-9764
颁奖	-9765
励志	-9766
SL	-9767
GO	-9768
姨妈	-9769
趣味	-9770
推行	-9771
会计师	-9772
失踪	-9773
局限	-9774
犹如	-9775
陷阱	-9776
老百姓	-9777
还款	-9778
here	-9779
矫正	-9780
重组	-9781
▁以后	-9782
术语	-9783
农田	-9784
常务委员会	-9785
附近的	-9786
19.	-9787
王者荣耀	-9788
联络	-9789
麻醉	-9790
UV	-9791
荣誉称号	-9792
性生活	-9793
振动	-9794
26]	-9795
恋人	-9796
256	-9797
干的	-9798
不尽	-9799
战斗机	-9800
可以看	-9801
使用了	-9802
家里的	-9803
商人	-9804
主要以	-9805
play	-9806
为核心	-9807
克莱	-9808
缩小	-9809
CN	-9810
加了	-9811
是非	-9812
运转	-9813
就是我	-9814
,000	-9815
▁中华	-9816
ans	-9817
嘴巴	-9818
做梦	-9819
▁Al	-9820
任何一个	-9821
可以从	-9822
昆虫	-9823
二氧化	-9824
职业技术学院	-9825
▁相关	-9826
特别的	-9827
润滑	-9828
长约	-9829
总决赛	-9830
两边	-9831
凭证	-9832
工科	-9833
有线	-9834
忍者	-9835
********	-9836
告别	-9837
仙女	-9838
补助	-9839
有几个	-9840
高中生	-9841
违规	-9842
毫升	-9843
cos	-9844
105	-9845
usic	-9846
初音	-9847
恶性	-9848
结晶	-9849
郁闷	-9850
极致	-9851
这是什么	-9852
行政主管部门	-9853
ung	-9854
很长	-9855
片段	-9856
博览	-9857
也得	-9858
唐代	-9859
所以在	-9860
但这	-9861
不难	-9862
盲目	-9863
合作伙伴	-9864
考的	-9865
▁现任	-9866
淋巴	-9867
军区	-9868
黑白	-9869
捐赠	-9870
做出了	-9871
atch	-9872
------------	-9873
ual	-9874
华夏	-9875
或其他	-9876
的软件	-9877
旨在	-9878
的白	-9879
▁人们	-9880
伴侣	-9881
安心	-9882
三包	-9883
假期	-9884
参谋	-9885
楼下	-9886
▁欢迎	-9887
什么事	-9888
分局	-9889
幸福的	-9890
抚养	-9891
讽刺	-9892
克兰	-9893
其实就是	-9894
应力	-9895
首席	-9896
▁爱情	-9897
以至于	-9898
。。。。。。	-9899
▁1996	-9900
▁z	-9901
大数据	-9902
何必	-9903
ype	-9904
基础知识	-9905
山西省	-9906
个人认为	-9907
一门	-9908
鉴别	-9909
的心态	-9910
担当	-9911
血糖	-9912
葡萄牙	-9913
猎人	-9914
传送	-9915
专栏	-9916
所说	-9917
知乎上	-9918
寓意	-9919
突发	-9920
定时	-9921
族的	-9922
1991	-9923
很强的	-9924
▁经常	-9925
本身的	-9926
同性恋	-9927
对战	-9928
美学	-9929
折叠	-9930
▁数学	-9931
网的	-9932
▁will	-9933
绑架	-9934
HR	-9935
报销	-9936
」。	-9937
明月	-9938
▁他说	-9939
最好不要	-9940
rap	-9941
:6	-9942
路面	-9943
▁包括	-9944
可以吃	-9945
联系方式	-9946
杆菌	-9947
ier	-9948
尊敬	-9949
下来了	-9950
的时代	-9951
清华大学	-9952
手表	-9953
大门	-9954
下辖	-9955
平淡	-9956
恶劣	-9957
扶贫	-9958
▁梁	-9959
章节	-9960
裁判	-9961
十七条	-9962
忠诚	-9963
。)	-9964
固定的	-9965
服务业	-9966
无双	-9967
带头	-9968
喜欢我	-9969
▁16.	-9970
县政府	-9971
写字	-9972
打个	-9973
有余	-9974
级别的	-9975
成品	-9976
留下了	-9977
行政村	-9978
六个	-9979
堪称	-9980
负荷	-9981
切实	-9982
▁so	-9983
纯收入	-9984
报刊	-9985
怎么能	-9986
▁少	-9987
乳腺	-9988
在前	-9989
村庄	-9990
mer	-9991
不忘	-9992
凭什么	-9993
和中国	-9994
中了	-9995
民俗	-9996
修养	-9997
团的	-9998
多余	-9999
邪恶	-10000
关怀	-10001
上限	-10002
好好学习	-10003
街上	-10004
ma	-10005
楼梯	-10006
进入了	-10007
包裹	-10008
年内	-10009
隶属于	-10010
见证	-10011
多彩	-10012
一类	-10013
制作人	-10014
有趣的	-10015
1986	-10016
端的	-10017
物浦	-10018
交通运输	-10019
是你的	-10020
给别人	-10021
▁剧情	-10022
可以吗	-10023
▁我知道	-10024
毒性	-10025
神仙	-10026
都觉得	-10027
(16	-10028
▁解	-10029
纵横	-10030
另外一个	-10031
保温	-10032
课本	-10033
走过	-10034
文书	-10035
特意	-10036
对应的	-10037
睡前	-10038
▁煤	-10039
的发生	-10040
城堡	-10041
还真	-10042
插槽	-10043
▁杜	-10044
内向	-10045
▁哦	-10046
摧毁	-10047
辩论	-10048
深刻的	-10049
土耳	-10050
▁字	-10051
水稻	-10052
布鲁	-10053
1800	-10054
▁姓名	-10055
▁老师	-10056
悬挂	-10057
管理系统	-10058
高低	-10059
率先	-10060
身的	-10061
发展和	-10062
燃气	-10063
▁三星	-10064
的同	-10065
怎么会	-10066
我的回答	-10067
车上	-10068
抬头	-10069
视力	-10070
判决	-10071
-16	-10072
的一款	-10073
的教学	-10074
高大	-10075
嘴里	-10076
嵌入	-10077
ech	-10078
给个	-10079
爵士	-10080
女人的	-10081
注入	-10082
了不少	-10083
上方	-10084
楼盘	-10085
other	-10086
出入	-10087
柯南	-10088
小朋友	-10089
来到了	-10090
▁俄罗斯	-10091
我一个	-10092
谷歌	-10093
番茄	-10094
乙肝	-10095
清代	-10096
促使	-10097
商贸	-10098
奶茶	-10099
口的	-10100
行程	-10101
和新	-10102
飞行员	-10103
忽悠	-10104
吸烟	-10105
出处	-10106
范畴	-10107
▁进入	-10108
土耳其	-10109
组成部分	-10110
后就	-10111
族自治	-10112
▁『	-10113
儿女	-10114
猴子	-10115
提倡	-10116
死去	-10117
甘肃省	-10118
能的	-10119
之事	-10120
起伏	-10121
抗战	-10122
八卦	-10123
Un	-10124
卧室	-10125
yn	-10126
沉迷	-10127
舰队	-10128
▁山东	-10129
成长的	-10130
红军	-10131
中共党员	-10132
笔试	-10133
西瓜	-10134
▁或许	-10135
windows	-10136
这样的人	-10137
自律	-10138
风情	-10139
素养	-10140
喜欢上	-10141
let	-10142
控制系统	-10143
首先要	-10144
FF	-10145
8、	-10146
又在	-10147
多名	-10148
不太好	-10149
市的	-10150
建设工程	-10151
老了	-10152
An	-10153
流行的	-10154
小事	-10155
凝聚	-10156
的字	-10157
胖子	-10158
第十二	-10159
总人口	-10160
拿了	-10161
会更	-10162
畅销	-10163
建设和	-10164
两点	-10165
侦察	-10166
的系统	-10167
原型	-10168
勤奋	-10169
原名	-10170
▁突然	-10171
想了	-10172
能把	-10173
图的	-10174
听说过	-10175
▁丁	-10176
不值得	-10177
ater	-10178
密集	-10179
/3	-10180
包围	-10181
CA	-10182
毛孔	-10183
▁低	-10184
起飞	-10185
留下的	-10186
贯穿	-10187
近期	-10188
%25。	-10189
▁<	-10190
半个月	-10191
彼得	-10192
加入中国共产党	-10193
瞄准	-10194
过大	-10195
艰苦	-10196
养老保险	-10197
骚扰	-10198
和他的	-10199
▁文化	-10200
于此	-10201
以外的	-10202
第一名	-10203
正版	-10204
阶层	-10205
ript	-10206
有效地	-10207
讲的	-10208
▁越	-10209
9,	-10210
进修	-10211
我从	-10212
程度的	-10213
做题	-10214
搞定	-10215
葫芦	-10216
推销	-10217
▁空气	-10218
夜间	-10219
改正	-10220
BO	-10221
▁副	-10222
我再	-10223
有何	-10224
的面	-10225
这么说	-10226
我们就	-10227
特长	-10228
关键是	-10229
红楼	-10230
].	-10231
隐形	-10232
意愿	-10233
载体	-10234
年平均	-10235
▁魔	-10236
的价值	-10237
累积	-10238
感叹	-10239
教育局	-10240
你得	-10241
电缆	-10242
18]	-10243
▁南京	-10244
触发	-10245
给你的	-10246
师的	-10247
开花	-10248
用到	-10249
辛辣	-10250
ict	-10251
▁事实上	-10252
CR	-10253
往下	-10254
政务	-10255
cf	-10256
专卖	-10257
怎么了	-10258
land	-10259
不理	-10260
右侧	-10261
都比较	-10262
▁得	-10263
!”	-10264
不影响	-10265
饮用	-10266
都想	-10267
教职工	-10268
一来	-10269
此类	-10270
的最大	-10271
即是	-10272
爱情正剧	-10273
场比赛	-10274
改装	-10275
▁综合	-10276
明代	-10277
▁也是	-10278
共鸣	-10279
必需	-10280
人品	-10281
佩戴	-10282
已经在	-10283
切割	-10284
▁非常	-10285
买了一	-10286
有力	-10287
▁下午	-10288
后在	-10289
避开	-10290
的理由	-10291
难忘	-10292
却在	-10293
▁强	-10294
ini	-10295
▁乐	-10296
-14	-10297
近年来	-10298
▁有一个	-10299
羊肉	-10300
不为	-10301
我不想	-10302
小游戏	-10303
南昌	-10304
不稳定	-10305
很不错	-10306
enc	-10307
看不见	-10308
一丝	-10309
光滑	-10310
纠错	-10311
西洋	-10312
CL	-10313
厌恶	-10314
108	-10315
可能有	-10316
死刑	-10317
不允许	-10318
蒸汽	-10319
真的有	-10320
火力	-10321
书写	-10322
相爱	-10323
橄榄	-10324
名义	-10325
奔驰	-10326
潜水	-10327
国立	-10328
遥控	-10329
前几天	-10330
ese	-10331
病因	-10332
WIN	-10333
布斯	-10334
我爱	-10335
,12	-10336
职员表	-10337
其间	-10338
之作	-10339
文案	-10340
银行卡	-10341
BD	-10342
分明	-10343
硫酸	-10344
:8	-10345
保安	-10346
底线	-10347
eth	-10348
有利	-10349
边界	-10350
劳动者	-10351
定理	-10352
介入	-10353
周岁	-10354
中华民族	-10355
九年	-10356
新颖	-10357
辅食	-10358
玩玩	-10359
十八条	-10360
ble	-10361
山县	-10362
用量	-10363
最近的	-10364
不觉	-10365
老爷	-10366
会说	-10367
ea	-10368
送的	-10369
招呼	-10370
疑惑	-10371
讲座	-10372
斯拉	-10373
飞船	-10374
保密	-10375
归来	-10376
能为	-10377
直男	-10378
而去	-10379
发现的	-10380
避孕药	-10381
求解	-10382
▁组织	-10383
价的	-10384
▁was	-10385
▁安全	-10386
出行	-10387
天涯	-10388
月光	-10389
还不是	-10390
也挺	-10391
扎实	-10392
期末	-10393
再度	-10394
决议	-10395
管理体系	-10396
线城市	-10397
2.8	-10398
”——	-10399
基本都是	-10400
又被	-10401
才行	-10402
▁钱	-10403
二的	-10404
农场	-10405
化为	-10406
!!!!!	-10407
前男友	-10408
大腿	-10409
笑了	-10410
的经验	-10411
排队	-10412
HE	-10413
其中有	-10414
误解	-10415
见识	-10416
需要注意	-10417
-17	-10418
管理制度	-10419
▁第二天	-10420
6.5	-10421
并发	-10422
历经	-10423
射线	-10424
打野	-10425
▁下载	-10426
流的	-10427
溃疡	-10428
▁整个	-10429
~!	-10430
小龙	-10431
▁四川	-10432
▁平时	-10433
特的	-10434
科长	-10435
最少	-10436
测绘	-10437
▁擅长	-10438
▁Wh	-10439
身体的	-10440
熊猫	-10441
和水	-10442
这种人	-10443
扩散	-10444
诸葛亮	-10445
幕后	-10446
民用	-10447
该村	-10448
教你	-10449
注销	-10450
钓鱼	-10451
流域	-10452
尚书	-10453
富含	-10454
编译	-10455
制作的	-10456
先把	-10457
木材	-10458
山脉	-10459
播种	-10460
在中	-10461
19]	-10462
二维码	-10463
涉及到	-10464
▁受	-10465
▁整	-10466
知识的	-10467
uff	-10468
偏向	-10469
外汇	-10470
物业管理	-10471
▁2,	-10472
胸部	-10473
脚步	-10474
一股	-10475
较小	-10476
是种怎样的体验	-10477
张家	-10478
风的	-10479
生孩子	-10480
▁实用	-10481
表彰	-10482
不了解	-10483
歌唱	-10484
我也不知道	-10485
一世	-10486
着手	-10487
骑兵	-10488
政府的	-10489
秋季	-10490
理论和	-10491
不服	-10492
大方	-10493
决定的	-10494
可以使用	-10495
脑残	-10496
▁角色	-10497
也无法	-10498
意图	-10499
的老师	-10500
代购	-10501
婚后	-10502
年限	-10503
4.2	-10504
.........	-10505
圆满	-10506
文化遗产	-10507
录像	-10508
杀害	-10509
内衣	-10510
金的	-10511
▁头	-10512
干货	-10513
后方	-10514
▁sp	-10515
试题	-10516
了中国	-10517
的答案	-10518
全日制	-10519
word	-10520
梦见	-10521
▁关	-10522
ML	-10523
)、《	-10524
配有	-10525
就知道了	-10526
▁指	-10527
监视	-10528
▁香港	-10529
的性格	-10530
这是一	-10531
就是因为	-10532
求职	-10533
高分	-10534
更快	-10535
环境下	-10536
州的	-10537
农业大学	-10538
的总	-10539
听着	-10540
▁歌曲	-10541
好好的	-10542
▁欧洲	-10543
与中国	-10544
的对象	-10545
什么东西	-10546
是一种怎样的体验	-10547
感觉自己	-10548
孕期	-10549
Sc	-10550
催化	-10551
学好	-10552
听听	-10553
品味	-10554
谈话	-10555
▁田	-10556
你没有	-10557
27]	-10558
三维	-10559
专职	-10560
▁[1-	-10561
▁́	-10562
奴隶	-10563
刺客	-10564
建议您	-10565
天上	-10566
iel	-10567
▁HD	-10568
小伙伴	-10569
这个东西	-10570
什么都不	-10571
没能	-10572
五大	-10573
天了	-10574
感慨	-10575
你就会	-10576
刘备	-10577
鱼类	-10578
air	-10579
牌子的	-10580
▁目录	-10581
所能	-10582
和国家	-10583
并对	-10584
外贸	-10585
4.0	-10586
还挺	-10587
开始的	-10588
想买	-10589
意为	-10590
左侧	-10591
传统文化	-10592
平民	-10593
珍贵	-10594
uper	-10595
未婚	-10596
国内的	-10597
开工	-10598
规矩	-10599
高职	-10600
食材	-10601
行为的	-10602
但是他	-10603
角的	-10604
子公司	-10605
之美	-10606
清淡	-10607
气味	-10608
压制	-10609
欧阳	-10610
但还是	-10611
职业教育	-10612
家属	-10613
找了	-10614
一般指	-10615
的前提下	-10616
▁》	-10617
▁乌	-10618
大纲	-10619
死神	-10620
尊严	-10621
份额	-10622
桌子	-10623
球的	-10624
业有限公司	-10625
麒麟	-10626
也需要	-10627
向下	-10628
唐朝	-10629
管的	-10630
ning	-10631
况且	-10632
现在是	-10633
行走	-10634
作的	-10635
鄙视	-10636
▁吉林	-10637
▁天津	-10638
调试	-10639
爱人	-10640
完后	-10641
诠释	-10642
风格的	-10643
孙子	-10644
▁随后	-10645
山地	-10646
来做	-10647
点了	-10648
都是有	-10649
1984	-10650
1987	-10651
亚特	-10652
行使	-10653
TX	-10654
泉水	-10655
监督检查	-10656
问下	-10657
想办法	-10658
了我的	-10659
身体健康	-10660
这几个	-10661
不了的	-10662
▁实际上	-10663
现实中	-10664
不能用	-10665
))	-10666
▁保修	-10667
看好	-10668
当地的	-10669
人才培养	-10670
管制	-10671
你还是	-10672
上是	-10673
像我	-10674
都已经	-10675
两岸	-10676
alk	-10677
安利	-10678
两只	-10679
城县	-10680
所长	-10681
在新	-10682
会把	-10683
有关系	-10684
公安机关	-10685
DNA	-10686
中小学	-10687
10%	-10688
▁】	-10689
我不会	-10690
就跟	-10691
将近	-10692
很想	-10693
能吃	-10694
的习惯	-10695
粗糙	-10696
播放器	-10697
执照	-10698
ins	-10699
本事	-10700
ython	-10701
说出来	-10702
超声	-10703
▁温	-10704
回来的	-10705
ista	-10706
▁也就是说	-10707
到期	-10708
走上	-10709
III	-10710
小镇	-10711
▁小米	-10712
质量的	-10713
▁梅	-10714
▁雪	-10715
▁香	-10716
教导	-10717
▁房屋	-10718
月中	-10719
我记得	-10720
▁可以的	-10721
▁09	-10722
有影响	-10723
人均纯收入	-10724
通过了	-10725
书店	-10726
绝大部分	-10727
持久	-10728
树木	-10729
污水	-10730
伦理	-10731
了许多	-10732
企业家	-10733
理想的	-10734
企图	-10735
▁[13]	-10736
亮度	-10737
始建于	-10738
绑定	-10739
倾斜	-10740
自尊	-10741
劳务	-10742
波罗	-10743
东南亚	-10744
对中国	-10745
地利	-10746
管理员	-10747
打死	-10748
PD	-10749
▁一些	-10750
被誉为	-10751
客户的	-10752
这项	-10753
太后	-10754
英格兰	-10755
巴拉	-10756
和人	-10757
第一天	-10758
第一节	-10759
转发	-10760
时装	-10761
前端	-10762
当年的	-10763
组的	-10764
山上	-10765
那年	-10766
氨酸	-10767
专业课	-10768
1600	-10769
紫外	-10770
也将	-10771
les	-10772
▁许	-10773
奖金	-10774
28]	-10775
▁满	-10776
困惑	-10777
▁记得	-10778
种植业	-10779
健身房	-10780
嘲讽	-10781
:11	-10782
业内	-10783
▁1)	-10784
这几	-10785
▁Bl	-10786
了一句	-10787
网速	-10788
哪家	-10789
感知	-10790
输了	-10791
年轻的	-10792
和朋友	-10793
口袋	-10794
得名	-10795
更多的是	-10796
第一部	-10797
华东	-10798
定为	-10799
半岛	-10800
能有	-10801
也非常	-10802
和不	-10803
1985	-10804
生效	-10805
抗生素	-10806
▁道	-10807
之以	-10808
档次	-10809
网红	-10810
见解	-10811
自己喜欢的	-10812
流失	-10813
米饭	-10814
路过	-10815
他了	-10816
的分	-10817
士顿	-10818
开心的	-10819
划算	-10820
可信	-10821
世人	-10822
希望你	-10823
月在	-10824
控制器	-10825
华丽	-10826
▁PS	-10827
创新的	-10828
的消息	-10829
枢纽	-10830
焦点	-10831
出色的	-10832
大多数人	-10833
夜里	-10834
res	-10835
片子	-10836
的结构	-10837
水质	-10838
装逼	-10839
鲜明	-10840
▁us	-10841
戏曲	-10842
超出	-10843
轨迹	-10844
▁菜	-10845
会产生	-10846
问了	-10847
的一句话	-10848
动员	-10849
阳性	-10850
的操作	-10851
工程学院	-10852
比较高	-10853
(6	-10854
)+	-10855
等多	-10856
抵达	-10857
弘扬	-10858
维亚	-10859
不掉	-10860
夺得	-10861
渲染	-10862
班长	-10863
肩膀	-10864
弱的	-10865
DI	-10866
▁民国	-10867
只是一	-10868
机动车	-10869
另有	-10870
片中	-10871
那我	-10872
内容的	-10873
不应	-10874
例外	-10875
点评	-10876
繁华	-10877
该校	-10878
文物保护	-10879
说得	-10880
光泽	-10881
共计	-10882
穿的	-10883
甲醛	-10884
这对	-10885
磁盘	-10886
副院长	-10887
农药	-10888
客房	-10889
粤语	-10890
1/2	-10891
回到了	-10892
造成了	-10893
▁It	-10894
困境	-10895
▁哈哈	-10896
开采	-10897
肺炎	-10898
农作物	-10899
婚纱	-10900
交际	-10901
诸如	-10902
离不开	-10903
学生会	-10904
ames	-10905
坐着	-10906
是人	-10907
▁know	-10908
精密	-10909
ない	-10910
家园	-10911
合约	-10912
▁在此	-10913
景德镇	-10914
习俗	-10915
天真	-10916
奇幻	-10917
▁说实话	-10918
名誉	-10919
典礼	-10920
生化	-10921
要说	-10922
any	-10923
美术学院	-10924
总觉得	-10925
▁Sp	-10926
的不是	-10927
而我	-10928
发布会	-10929
li	-10930
人民医院	-10931
so	-10932
搭载	-10933
天津市	-10934
可可	-10935
悠久	-10936
导体	-10937
▁近年来	-10938
骨折	-10939
▁AR	-10940
妥协	-10941
经典的	-10942
不用担心	-10943
人而	-10944
头皮	-10945
放假	-10946
同桌	-10947
▁者	-10948
阻碍	-10949
▁im	-10950
白云	-10951
油脂	-10952
身边的	-10953
同房	-10954
▁采用	-10955
这套	-10956
不知道怎么	-10957
后来的	-10958
体中文	-10959
门外	-10960
金币	-10961
如果想	-10962
兵器	-10963
在小	-10964
ring	-10965
icrosoft	-10966
四级	-10967
恭喜	-10968
预告	-10969
▁’	-10970
的父亲	-10971
▁相信	-10972
投降	-10973
灿烂	-10974
出去玩	-10975
有三	-10976
活动中	-10977
产的	-10978
宋代	-10979
不就是	-10980
但是你	-10981
外国人	-10982
att	-10983
恐龙	-10984
的去	-10985
盒子	-10986
比上年增长	-10987
一所	-10988
周杰伦	-10989
偏偏	-10990
精子	-10991
今天的	-10992
▁体	-10993
▁市场	-10994
PV	-10995
▁感谢	-10996
有毒	-10997
▁更新	-10998
▁配	-10999
抢救	-11000
巴斯	-11001
解锁	-11002
▁人类	-11003
萨斯	-11004
输入法	-11005
暂停	-11006
破碎	-11007
的出现	-11008
:‘	-11009
1%	-11010
慎重	-11011
通行	-11012
在内的	-11013
自家	-11014
好几	-11015
忘记了	-11016
好一点	-11017
存在着	-11018
省内	-11019
过高	-11020
第一时间	-11021
说道	-11022
有意	-11023
又一次	-11024
请你	-11025
并于	-11026
带走	-11027
打扰	-11028
的要	-11029
魅族	-11030
的话可以	-11031
力求	-11032
用人单位	-11033
检疫	-11034
前锋	-11035
赛车	-11036
也是一个	-11037
ern	-11038
设计与	-11039
小吃	-11040
液压	-11041
肝脏	-11042
往事	-11043
十九条	-11044
的来说	-11045
增值税	-11046
是她	-11047
有时间	-11048
▁格	-11049
有许多	-11050
花卉	-11051
达标	-11052
▁un	-11053
或者其他	-11054
▁坚持	-11055
▁愿	-11056
科学研究	-11057
mmm	-11058
公关	-11059
▁艺术	-11060
风吹	-11061
▁随	-11062
lex	-11063
兑换	-11064
剧烈	-11065
更能	-11066
爸爸妈妈	-11067
醒了	-11068
▁家里	-11069
总值	-11070
问你	-11071
一双	-11072
所有权	-11073
主打	-11074
▁位于	-11075
卡片	-11076
NO	-11077
ATA	-11078
现已	-11079
▁详细	-11080
糊涂	-11081
退货	-11082
的脸	-11083
拒绝了	-11084
112	-11085
特定的	-11086
转化为	-11087
前面的	-11088
兼任	-11089
买家	-11090
发光	-11091
7000	-11092
▁•	-11093
长辈	-11094
硕士研究生	-11095
五六	-11096
▁App	-11097
▁操作	-11098
最后一个	-11099
防空	-11100
▁各种	-11101
都好	-11102
如来	-11103
工伤	-11104
组装	-11105
的其他	-11106
从头	-11107
并与	-11108
800/	-11109
口径	-11110
演变	-11111
代号	-11112
听的	-11113
称作	-11114
患者的	-11115
前方	-11116
想不到	-11117
是一样的	-11118
-13	-11119
不全	-11120
北美	-11121
脑海	-11122
窗户	-11123
迎接	-11124
太低	-11125
转载	-11126
静静	-11127
20%	-11128
▁魏	-11129
的优势	-11130
不要再	-11131
▁我认为	-11132
ui	-11133
诸侯	-11134
都喜欢	-11135
候选	-11136
说着	-11137
▁追答	-11138
UR	-11139
不胜	-11140
水上	-11141
广播电视	-11142
红旗	-11143
试过	-11144
▁谁能	-11145
党组书记	-11146
质地	-11147
问她	-11148
号称	-11149
你这个	-11150
cel	-11151
▁1995	-11152
che	-11153
上市公司	-11154
▁背	-11155
▁出生	-11156
是最好的	-11157
而且还	-11158
世界大战	-11159
华北	-11160
隐患	-11161
5.0	-11162
▁知道	-11163
▁校	-11164
德育	-11165
安全性	-11166
等方面的	-11167
口罩	-11168
于一	-11169
被我	-11170
▁GB	-11171
▁知	-11172
遗迹	-11173
10,	-11174
全方位	-11175
迷信	-11176
TI	-11177
供水	-11178
▁讲	-11179
解脱	-11180
▁),	-11181
现在已经	-11182
海贼	-11183
部门的	-11184
裙子	-11185
▁实验	-11186
▁玉	-11187
来回	-11188
▁70	-11189
主题曲	-11190
赢得了	-11191
暗黑	-11192
让别人	-11193
3%	-11194
口气	-11195
误差	-11196
重疾	-11197
培训机构	-11198
创伤	-11199
的办法	-11200
600/	-11201
apter	-11202
▁广	-11203
▁农历	-11204
;“	-11205
PM	-11206
名家	-11207
▁复	-11208
使之	-11209
我心	-11210
拉黑	-11211
▁努力	-11212
吃鸡	-11213
制药	-11214
▁2)	-11215
和生活	-11216
运动的	-11217
太原	-11218
▁而在	-11219
摩尔	-11220
户型	-11221
喝了	-11222
最快	-11223
财富值	-11224
峡谷	-11225
毕业的	-11226
整个人	-11227
负责任	-11228
▁法国	-11229
read	-11230
读音	-11231
局局长	-11232
消费者的	-11233
湿润	-11234
6%	-11235
▁跨	-11236
不起来	-11237
LL	-11238
师父	-11239
一提	-11240
你来	-11241
▁走	-11242
事先	-11243
最爱	-11244
反映了	-11245
化和	-11246
小麦	-11247
后又	-11248
四处	-11249
侮辱	-11250
出品	-11251
消炎	-11252
小说的	-11253
KB	-11254
实惠	-11255
我这个	-11256
两句	-11257
▁深圳	-11258
有两种	-11259
的身份	-11260
闪电	-11261
你也可以	-11262
iversity	-11263
县级以上	-11264
po	-11265
某某	-11266
▁学院	-11267
▁铁	-11268
撰写	-11269
故乡	-11270
可持续发展	-11271
▁26	-11272
上天	-11273
的品牌	-11274
▁>	-11275
金融机构	-11276
吃点	-11277
与发展	-11278
unes	-11279
林地	-11280
从前	-11281
▁——《	-11282
充分发挥	-11283
不带	-11284
德华	-11285
=3	-11286
la	-11287
多点	-11288
异地恋	-11289
红色的	-11290
▁家庭	-11291
到这里	-11292
医保	-11293
加密	-11294
解说	-11295
恰恰	-11296
短短	-11297
使用权	-11298
▁机械	-11299
与他	-11300
睡不着	-11301
人也	-11302
并无	-11303
国企	-11304
克里斯	-11305
2012-	-11306
美军	-11307
公里的	-11308
防范	-11309
得太	-11310
view	-11311
棉花	-11312
3.4	-11313
文中	-11314
很好看	-11315
和中	-11316
自己做	-11317
hi	-11318
海报	-11319
着她	-11320
治疗的	-11321
教育厅	-11322
手下	-11323
自助	-11324
鲜花	-11325
不在乎	-11326
我们是	-11327
好点	-11328
观光	-11329
让它	-11330
半径	-11331
元件	-11332
对这个	-11333
德的	-11334
bug	-11335
8)	-11336
再加	-11337
打印机	-11338
top	-11339
▁会计	-11340
▁esrc	-11341
肥胖	-11342
切除	-11343
br	-11344
/4	-11345
排斥	-11346
隶属	-11347
Go	-11348
▁坐	-11349
分管	-11350
跳跃	-11351
是由于	-11352
根本没有	-11353
很差	-11354
工程技术	-11355
更适合	-11356
亲情	-11357
尔夫	-11358
一个大	-11359
导入	-11360
AE	-11361
湿地	-11362
料的	-11363
白色的	-11364
进食	-11365
NG	-11366
责令	-11367
自己也	-11368
如是	-11369
打折	-11370
匈奴	-11371
应在	-11372
▁管理	-11373
第二节	-11374
利普	-11375
的文件	-11376
届中国	-11377
启发	-11378
行情	-11379
90’0	-11380
非常的	-11381
滋味	-11382
20]	-11383
因为他们	-11384
了一点	-11385
字幕	-11386
都用	-11387
▁直	-11388
电网	-11389
出资	-11390
▁拿	-11391
Mac	-11392
了下来	-11393
ck	-11394
熟悉的	-11395
幅度	-11396
从业人员	-11397
归纳	-11398
▁眼	-11399
疑难	-11400
5.5	-11401
hop	-11402
举个例子	-11403
真空	-11404
蚂蚁	-11405
▁有个	-11406
后勤	-11407
二者	-11408
一的	-11409
名胜	-11410
三月	-11411
应该怎么	-11412
佩服	-11413
迁移	-11414
▁从此	-11415
顶端	-11416
DE	-11417
树脂	-11418
发表论文	-11419
好久	-11420
格尔	-11421
祖先	-11422
霸王	-11423
影响到	-11424
高人	-11425
军官	-11426
往来	-11427
俄国	-11428
▁各位	-11429
off	-11430
中小企业	-11431
莫名其妙	-11432
2(	-11433
▁只能	-11434
▁孕妇	-11435
商品房	-11436
to	-11437
餐馆	-11438
卵巢	-11439
打车	-11440
把这个	-11441
不仅仅是	-11442
富士	-11443
替换	-11444
···	-11445
▁哪些	-11446
完善的	-11447
底部	-11448
为本	-11449
▁浙江	-11450
NA	-11451
▁男人	-11452
推出了	-11453
啊啊啊啊	-11454
整齐	-11455
几分钟	-11456
但又	-11457
数理	-11458
认识到	-11459
祭祀	-11460
空空	-11461
告诉她	-11462
高了	-11463
也不想	-11464
-200	-11465
▁昨天	-11466
专升本	-11467
纯洁	-11468
▁沙	-11469
,30	-11470
▁利用	-11471
▁参考文献	-11472
冷的	-11473
▁银	-11474
对接	-11475
马逊	-11476
安市	-11477
台北	-11478
lect	-11479
语种	-11480
了他的	-11481
培训班	-11482
追问	-11483
▁肯定	-11484
ternet	-11485
了下	-11486
社科	-11487
争论	-11488
再到	-11489
2。	-11490
时会	-11491
专业技术	-11492
▁顺	-11493
孤单	-11494
量为	-11495
债权	-11496
好还是	-11497
的用户	-11498
一期	-11499
在我的	-11500
微量元素	-11501
捕捉	-11502
三位	-11503
歌舞	-11504
被骗	-11505
调解	-11506
残忍	-11507
的和	-11508
江县	-11509
233	-11510
在里面	-11511
就够了	-11512
奈何	-11513
回顾	-11514
bd	-11515
▁毛	-11516
▁哪个	-11517
赶到	-11518
高潮	-11519
▁估计	-11520
探险	-11521
合法权益	-11522
狐狸	-11523
是什么体验	-11524
武将	-11525
就连	-11526
孵化	-11527
烈士	-11528
货运	-11529
上火	-11530
冶金	-11531
帅哥	-11532
禁忌	-11533
爱他	-11534
正品	-11535
打字	-11536
岛屿	-11537
恰好	-11538
即时	-11539
”:	-11540
好啊	-11541
技法	-11542
青铜	-11543
512	-11544
公司在	-11545
▁特别是	-11546
生态环境	-11547
从来不	-11548
▁建	-11549
可以根据	-11550
▁基本信息	-11551
吉尔	-11552
此事	-11553
▁通	-11554
▁成都	-11555
化石	-11556
收视	-11557
CAD	-11558
的还是	-11559
都一样	-11560
限定	-11561
29]	-11562
▁第九章	-11563
区间	-11564
检索	-11565
等我	-11566
县长	-11567
万千	-11568
东莞	-11569
二百	-11570
民办	-11571
蒸发	-11572
贫穷	-11573
eal	-11574
理解的	-11575
FL	-11576
资格证	-11577
结核	-11578
者和	-11579
转会	-11580
人会	-11581
极品	-11582
等问题	-11583
及相关	-11584
理事长	-11585
克制	-11586
明确的	-11587
酸奶	-11588
大火	-11589
挫折	-11590
是真	-11591
环球	-11592
▁穷	-11593
写着	-11594
已知	-11595
▁time	-11596
监理	-11597
乐团	-11598
▁在我	-11599
大理	-11600
侦查	-11601
判定	-11602
铃声	-11603
资本主义	-11604
经贸	-11605
鸟类	-11606
▁它的	-11607
一到	-11608
ica	-11609
腐败	-11610
通的	-11611
Win	-11612
▁like	-11613
▁送	-11614
的风险	-11615
宫颈	-11616
可口	-11617
=(	-11618
境外	-11619
技艺	-11620
团长	-11621
废话	-11622
契约	-11623
▁城市	-11624
火影	-11625
按时	-11626
▁未来	-11627
束缚	-11628
承载	-11629
莱坞	-11630
感觉很	-11631
元左右	-11632
自己喜欢	-11633
施行	-11634
不完	-11635
三点	-11636
君主	-11637
▁她的	-11638
-08-	-11639
有不	-11640
缘分	-11641
不好看	-11642
后被	-11643
说下	-11644
SN	-11645
中断	-11646
高科技	-11647
完成的	-11648
▁本词条	-11649
汇报	-11650
各界	-11651
字典	-11652
远了	-11653
▁斯	-11654
改良	-11655
如果要	-11656
▁ab	-11657
多万	-11658
逃离	-11659
战神	-11660
而且是	-11661
配送	-11662
▁比较	-11663
▁Con	-11664
作风	-11665
横向	-11666
师范学院	-11667
死机	-11668
这是我	-11669
集中在	-11670
复印件	-11671
叙事	-11672
同人	-11673
▁任务	-11674
电影的	-11675
看出来	-11676
很明显	-11677
湿疹	-11678
浸泡	-11679
纠缠	-11680
小小	-11681
离去	-11682
30.	-11683
打出	-11684
医学会	-11685
封印	-11686
布拉	-11687
几十年	-11688
管理办法	-11689
公认	-11690
法官	-11691
希望大家	-11692
烧烤	-11693
▁28	-11694
服役	-11695
各种各样的	-11696
王牌	-11697
沿着	-11698
——“	-11699
招收	-11700
公立	-11701
站点	-11702
生子	-11703
手感	-11704
▁第三百	-11705
农村经济	-11706
600%2	-11707
▁哎	-11708
▁服务	-11709
容纳	-11710
不同于	-11711
信息系统	-11712
为准	-11713
比利	-11714
重力	-11715
阳台	-11716
玄幻	-11717
▁故事	-11718
小小的	-11719
战斗力	-11720
不值	-11721
她也	-11722
口水	-11723
唯有	-11724
搜狐	-11725
料理	-11726
缺失	-11727
▁出版社	-11728
壁纸	-11729
扭曲	-11730
色素	-11731
KE	-11732
还有一些	-11733
粘贴	-11734
的事物	-11735
期内	-11736
bit	-11737
急救	-11738
▁[14]	-11739
怀孕的	-11740
综合征	-11741
差不多了	-11742
汽油	-11743
十月	-11744
的儿子	-11745
无忌	-11746
重心	-11747
掌控	-11748
特么	-11749
海底	-11750
傻子	-11751
所在的	-11752
是我国	-11753
大厅	-11754
在做	-11755
热度	-11756
▁村	-11757
工学	-11758
一年的	-11759
年以来	-11760
我以前	-11761
不合适	-11762
后代	-11763
从来没	-11764
毛巾	-11765
可以看出	-11766
用电	-11767
亲切	-11768
你家	-11769
口号	-11770
全都	-11771
▁尤其是	-11772
天文	-11773
▁变	-11774
和他们	-11775
一件事	-11776
易于	-11777
▁打开	-11778
成型	-11779
的重要性	-11780
又会	-11781
为客户	-11782
未经	-11783
帮他	-11784
名列	-11785
狙击	-11786
的文章	-11787
的理论	-11788
适合自己的	-11789
Bl	-11790
接受了	-11791
因果	-11792
不是说	-11793
就直接	-11794
思议	-11795
油画	-11796
已经成为	-11797
▁ad	-11798
性感	-11799
不经	-11800
▁我不知道	-11801
▁镜	-11802
玩过	-11803
▁(《	-11804
之情	-11805
新城	-11806
比特	-11807
衔接	-11808
可以是	-11809
不仅是	-11810
网易云	-11811
离家	-11812
有事	-11813
特有的	-11814
的颜色	-11815
▁别人	-11816
BU	-11817
(17	-11818
21]	-11819
水和	-11820
1.7	-11821
寄生	-11822
▁陆	-11823
哪一个	-11824
ru	-11825
闻名	-11826
4.1	-11827
oot	-11828
输卵	-11829
检查一下	-11830
见于	-11831
8.5	-11832
无一	-11833
法语	-11834
:12	-11835
IBM	-11836
子孙	-11837
沿革	-11838
米粉	-11839
亏损	-11840
失调	-11841
动力学	-11842
▁任何	-11843
▁本词条由	-11844
合资	-11845
申请人	-11846
能看到	-11847
这些东西	-11848
的比例	-11849
觉得他	-11850
人设	-11851
深夜	-11852
找找	-11853
在外面	-11854
▁语言	-11855
▁Mar	-11856
推测	-11857
敏捷	-11858
/10	-11859
力气	-11860
ator	-11861
光头	-11862
▁Man	-11863
基督教	-11864
感悟	-11865
调用	-11866
就会有	-11867
。“	-11868
若是	-11869
轴承	-11870
该片	-11871
信赖	-11872
▁酒店	-11873
卫生间	-11874
▁侯	-11875
马来西亚	-11876
同名	-11877
制订	-11878
太难	-11879
的程度	-11880
奥林	-11881
维尔	-11882
脱落	-11883
攻击力	-11884
的开	-11885
仅有	-11886
失恋	-11887
被子	-11888
浓郁	-11889
▁本科	-11890
大城市	-11891
毒品	-11892
国道	-11893
首选	-11894
后会	-11895
you	-11896
上一个	-11897
80%	-11898
(12	-11899
状元	-11900
前沿	-11901
爱豆	-11902
携手	-11903
为代表	-11904
港澳	-11905
▁9、	-11906
的点	-11907
work	-11908
春季	-11909
智能手机	-11910
我怎么	-11911
▁参加	-11912
有序	-11913
星空	-11914
平方千米	-11915
330	-11916
笔者	-11917
柴油	-11918
GDP	-11919
先生的	-11920
▁是否	-11921
同等	-11922
还是挺	-11923
艺术的	-11924
样本	-11925
像个	-11926
法庭	-11927
ios	-11928
手臂	-11929
行政区域	-11930
还说	-11931
秒钟	-11932
一键	-11933
无视	-11934
专属	-11935
数百	-11936
当场	-11937
他要	-11938
国庆	-11939
选购	-11940
进的	-11941
登上	-11942
数控	-11943
前女友	-11944
党委副书记	-11945
岛上	-11946
样式	-11947
白菜	-11948
着重	-11949
ally	-11950
如图	-11951
敌方	-11952
是一件	-11953
浑身	-11954
罗门	-11955
锁定	-11956
提琴	-11957
几乎没有	-11958
有可能是	-11959
的形象	-11960
经销商	-11961
半月	-11962
的治疗	-11963
▁干	-11964
不听	-11965
乔治	-11966
锅炉	-11967
喜欢她	-11968
Fi	-11969
你没	-11970
最后一次	-11971
在水	-11972
▁1994	-11973
原有	-11974
▁长期	-11975
制动	-11976
投放	-11977
绝对是	-11978
完全是	-11979
外婆	-11980
低调	-11981
局的	-11982
性与	-11983
2%	-11984
个子	-11985
叶子	-11986
▁韩国	-11987
省委	-11988
填充	-11989
步伐	-11990
的粉丝	-11991
190	-11992
▁~	-11993
Mar	-11994
黑人	-11995
控制的	-11996
兴起	-11997
做一些	-11998
转速	-11999
作用的	-12000
专业委员会	-12001
,16	-12002
夺冠	-12003
省市	-12004
450%2	-12005
一二	-12006
头晕	-12007
五千	-12008
▁为何	-12009
▁永	-12010
业界	-12011
财务管理	-12012
与否	-12013
并以	-12014
就算是	-12015
,200	-12016
这座	-12017
血的	-12018
cess	-12019
域名	-12020
▁临	-12021
创作的	-12022
吸附	-12023
体现在	-12024
点半	-12025
往上	-12026
115	-12027
在一起了	-12028
新生儿	-12029
信访	-12030
昨晚	-12031
领导人	-12032
珊瑚	-12033
固醇	-12034
上手	-12035
喂奶	-12036
长大了	-12037
▁土	-12038
来找	-12039
的可以	-12040
放手	-12041
▁纯	-12042
▁酷	-12043
指望	-12044
来进行	-12045
民航	-12046
特质	-12047
伴有	-12048
成效	-12049
逍遥	-12050
因为是	-12051
活在	-12052
废物	-12053
音乐的	-12054
创作者	-12055
会同	-12056
▁见	-12057
上个	-12058
梅花	-12059
破裂	-12060
是美国	-12061
放过	-12062
欧元	-12063
按规定	-12064
每一次	-12065
▁试	-12066
十余	-12067
出路	-12068
士尼	-12069
门诊	-12070
发行的	-12071
互联	-12072
自有	-12073
菊花	-12074
▁据说	-12075
测评	-12076
综上	-12077
四肢	-12078
家电	-12079
爱她	-12080
▁XP	-12081
▁妈妈	-12082
▁梦见	-12083
的权利	-12084
我们都	-12085
实用的	-12086
第三次	-12087
24.	-12088
亲近	-12089
▁Gr	-12090
涉嫌	-12091
百货	-12092
读研	-12093
对策	-12094
史记	-12095
有权	-12096
知识和	-12097
学士学位	-12098
风机	-12099
目前的	-12100
line	-12101
形式的	-12102
缴费	-12103
即使是	-12104
比的	-12105
▁tr	-12106
▁来自	-12107
山寨	-12108
都比	-12109
ft	-12110
人身	-12111
一笔	-12112
梳理	-12113
无知	-12114
举办的	-12115
)”	-12116
查处	-12117
▁一般来说	-12118
No	-12119
下个	-12120
然后我	-12121
生活中的	-12122
分校	-12123
rist	-12124
▁Unit	-12125
na	-12126
东海	-12127
▁许多	-12128
wifi	-12129
亚军	-12130
往前	-12131
概论	-12132
首饰	-12133
及以上	-12134
心底	-12135
总有	-12136
盯着	-12137
人流	-12138
较强的	-12139
发货	-12140
授课	-12141
平稳	-12142
▁64	-12143
可使	-12144
▁No	-12145
一律	-12146
买东西	-12147
压缩机	-12148
获得的	-12149
指向	-12150
医疗保险	-12151
出厂	-12152
噪声	-12153
都行	-12154
抗体	-12155
有能力	-12156
▁约	-12157
干预	-12158
的真实	-12159
马路	-12160
aa	-12161
7%	-12162
书院	-12163
伴随着	-12164
嫁给	-12165
可以先	-12166
▁泰	-12167
预备	-12168
海鲜	-12169
可以帮助	-12170
▁有点	-12171
▁萌	-12172
景色	-12173
高山	-12174
群里	-12175
出具	-12176
▁08	-12177
因为她	-12178
其中一个	-12179
form	-12180
管理人员	-12181
脱发	-12182
电视机	-12183
TE	-12184
▁不好	-12185
天子	-12186
要怎么	-12187
蘑菇	-12188
毕竟是	-12189
新西兰	-12190
打到	-12191
真假	-12192
仅供参考	-12193
dll	-12194
▁每个人	-12195
转到	-12196
▁也有	-12197
学院的	-12198
反派	-12199
预言	-12200
严格的	-12201
他人的	-12202
胡椒	-12203
蝙蝠	-12204
算不算	-12205
会让你	-12206
靠谱的	-12207
ony	-12208
年生	-12209
搜索引擎	-12210
作品的	-12211
年华	-12212
找回	-12213
的动作	-12214
本会	-12215
桂林	-12216
航母	-12217
现有的	-12218
▁接下来	-12219
扬州	-12220
局域	-12221
专门的	-12222
我之前	-12223
紊乱	-12224
个村民	-12225
个性化	-12226
诈骗	-12227
他家	-12228
散步	-12229
煤气	-12230
产业化	-12231
而定	-12232
对你有帮助	-12233
▁沈	-12234
看不起	-12235
▁体重	-12236
▁包	-12237
渔业	-12238
正常吗	-12239
不由	-12240
卫士	-12241
造就	-12242
情愿	-12243
念头	-12244
与社会	-12245
也是很	-12246
更喜欢	-12247
玩家的	-12248
质感	-12249
诅咒	-12250
宽容	-12251
▁福	-12252
▁音	-12253
480	-12254
ents	-12255
名师	-12256
波特	-12257
一个问题	-12258
一头	-12259
买过	-12260
只知道	-12261
的生命	-12262
▁看了	-12263
里亚	-12264
行了	-12265
舍利	-12266
天左右	-12267
派遣	-12268
(9	-12269
只在	-12270
民生	-12271
吸血鬼	-12272
晋江	-12273
▁不想	-12274
传销	-12275
宁静	-12276
战的	-12277
代表作	-12278
也是一种	-12279
以下简称	-12280
了一年	-12281
都不错	-12282
膝盖	-12283
电脑的	-12284
明了	-12285
中的一	-12286
是什么感觉	-12287
之称	-12288
监护	-12289
衰老	-12290
而过	-12291
的语言	-12292
应该有	-12293
在一起的	-12294
意义上的	-12295
▁答	-12296
几张	-12297
刑法	-12298
托福	-12299
满分	-12300
婴幼儿	-12301
静态	-12302
Wh	-12303
▁交通	-12304
输卵管	-12305
置于	-12306
▁世	-12307
破产	-12308
长途	-12309
帝王	-12310
但由于	-12311
觉得你	-12312
强力	-12313
马的	-12314
135	-12315
是这个	-12316
块的	-12317
车子	-12318
罗拉	-12319
时间为	-12320
食品安全	-12321
下手	-12322
▁绿	-12323
留着	-12324
微观	-12325
对人	-12326
身影	-12327
环境中	-12328
东方衍生	-12329
:7	-12330
转动	-12331
桌上	-12332
中央电视台	-12333
bf	-12334
了一条	-12335
根源	-12336
ale	-12337
真的好	-12338
▁余	-12339
出台	-12340
病例	-12341
题的	-12342
这么多年	-12343
明亮	-12344
是没	-12345
胳膊	-12346
▁章	-12347
本身就是	-12348
归属	-12349
诊疗	-12350
▁18.	-12351
▁[15]	-12352
开着	-12353
如果在	-12354
尼尔	-12355
生产线	-12356
▁共	-12357
电站	-12358
凶手	-12359
哈利	-12360
航班	-12361
哈哈哈哈哈哈哈哈	-12362
仿真	-12363
奔跑	-12364
有啥	-12365
鉴赏	-12366
台阶	-12367
意义上	-12368
沉积	-12369
▁意大利	-12370
不禁	-12371
▁佛山市	-12372
▁自动	-12373
私立	-12374
两家	-12375
竞争对手	-12376
▁他在	-12377
有所帮助	-12378
资格考试	-12379
盗版	-12380
此处	-12381
计较	-12382
自定义	-12383
自来水	-12384
产科	-12385
淡淡	-12386
议会	-12387
此刻	-12388
存放	-12389
为一体	-12390
佛罗	-12391
加深	-12392
25.	-12393
两千	-12394
微微	-12395
商业银行	-12396
即为	-12397
更重要	-12398
纪委	-12399
如果他	-12400
▁且	-12401
▁17.	-12402
▁那就	-12403
▁女朋友	-12404
切尔	-12405
纪检	-12406
早在	-12407
极具	-12408
▁审核	-12409
状态下	-12410
在校学生	-12411
色列	-12412
.)	-12413
汇率	-12414
产业发展	-12415
▁法律	-12416
的条件	-12417
▁离	-12418
全文	-12419
葡萄糖	-12420
状腺	-12421
行星	-12422
yl	-12423
无尽	-12424
受损	-12425
特别好	-12426
珠海	-12427
开幕	-12428
吃东西	-12429
清楚了	-12430
天猫	-12431
如意	-12432
屌丝	-12433
对身体	-12434
世纪的	-12435
的成绩	-12436
个好	-12437
匆匆	-12438
我好	-12439
物价	-12440
主教	-12441
度和	-12442
每人	-12443
看重	-12444
锦标	-12445
114	-12446
奖最佳	-12447
武林	-12448
越狱	-12449
▁谁知道	-12450
车身	-12451
1980	-12452
▁在这个	-12453
──	-12454
储蓄	-12455
的决定	-12456
自制	-12457
逛街	-12458
红楼梦	-12459
什么呢	-12460
▁秋	-12461
开业	-12462
争霸	-12463
迄今	-12464
党支部	-12465
现实的	-12466
Com	-12467
受众	-12468
楼的	-12469
之间的关系	-12470
任教	-12471
▁pl	-12472
出差	-12473
分布在	-12474
动画片	-12475
市中心	-12476
心血管	-12477
reat	-12478
丽莎	-12479
▁1993	-12480
port	-12481
月加入中国共产党	-12482
学习和	-12483
风味	-12484
接地	-12485
3.6	-12486
可以将	-12487
aster	-12488
魔兽世界	-12489
反弹	-12490
ji	-12491
源自	-12492
生肖	-12493
▁信	-12494
▁生产	-12495
借钱	-12496
序列号	-12497
TR	-12498
是把	-12499
在下	-12500
搭档	-12501
后人	-12502
-09-	-12503
尔兰	-12504
eroro	-12505
氧气	-12506
张专辑	-12507
也只能	-12508
泌尿	-12509
功耗	-12510
ull	-12511
▁%	-12512
的他	-12513
我跟	-12514
部分的	-12515
部部长	-12516
遇上	-12517
流泪	-12518
看不懂	-12519
线程	-12520
六级	-12521
0.0	-12522
从业者	-12523
师大	-12524
个大	-12525
争吵	-12526
:18	-12527
巧妙	-12528
、3	-12529
▁药	-12530
双核	-12531
害羞	-12532
旺盛	-12533
阻力	-12534
火灾	-12535
难的	-12536
火星	-12537
中型	-12538
滋润	-12539
出租车	-12540
富裕	-12541
体制改革	-12542
鱼的	-12543
心病	-12544
职权	-12545
’,	-12546
▁同义词	-12547
▁硬盘	-12548
设计和	-12549
▁左	-12550
绘制	-12551
你的问题	-12552
灵敏	-12553
被告	-12554
运动会	-12555
舍得	-12556
速率	-12557
草莓	-12558
倾向于	-12559
但你	-12560
母亲的	-12561
▁am	-12562
只是在	-12563
父亲的	-12564
辖区	-12565
ody	-12566
税务局	-12567
mb	-12568
审定	-12569
实地	-12570
▁小时候	-12571
▁耐	-12572
喇叭	-12573
宁愿	-12574
维奇	-12575
低头	-12576
请大家	-12577
鉴于	-12578
山大	-12579
▁空中	-12580
便携	-12581
出汗	-12582
230	-12583
海水	-12584
体型	-12585
很高兴	-12586
艺兴	-12587
必要时	-12588
世界上最	-12589
本来就是	-12590
网球	-12591
就和	-12592
矩阵	-12593
启示	-12594
机组	-12595
网络上	-12596
三本	-12597
表述	-12598
注意到	-12599
赞助	-12600
一瞬间	-12601
遗忘	-12602
进士	-12603
▁用户	-12604
哥伦	-12605
胃肠	-12606
时有	-12607
▁曹	-12608
说一句	-12609
调动	-12610
:(1)	-12611
热搜	-12612
▁1992	-12613
佛法	-12614
栖息	-12615
车间	-12616
(15	-12617
▁考研	-12618
颁发	-12619
吉利	-12620
总共	-12621
DA	-12622
仙人	-12623
▁范	-12624
▁恩	-12625
并入	-12626
被他	-12627
风湿	-12628
的事件	-12629
还未	-12630
素的	-12631
/0	-12632
赢了	-12633
个月了	-12634
做工	-12635
插曲	-12636
租金	-12637
▁它们	-12638
冷水	-12639
sk	-12640
圣经	-12641
所述	-12642
▁初中	-12643
排名第	-12644
太好	-12645
牛仔	-12646
遍布	-12647
并不会	-12648
青山	-12649
存在于	-12650
102	-12651
对症	-12652
死于	-12653
爱情的	-12654
▁种	-12655
谁的	-12656
my	-12657
就越	-12658
▁ar	-12659
人为本	-12660
并组织实施	-12661
五官	-12662
作弊	-12663
第一位	-12664
就可	-12665
空间的	-12666
干涉	-12667
elf	-12668
都非常	-12669
▁气	-12670
啦啦	-12671
百强	-12672
▁接着	-12673
妖怪	-12674
相见	-12675
穿上	-12676
25]	-12677
指纹	-12678
蛋黄	-12679
入住	-12680
校友	-12681
玩手机	-12682
中被	-12683
快点	-12684
▁Br	-12685
少儿	-12686
▁分手	-12687
▁修	-12688
独家	-12689
绍兴	-12690
也不好	-12691
也一样	-12692
追踪	-12693
必须是	-12694
:200	-12695
题型	-12696
音乐学院	-12697
▁现在的	-12698
专业人士	-12699
很像	-12700
缘故	-12701
▁答案	-12702
移动电话	-12703
▁环境	-12704
老爸	-12705
▁ro	-12706
▁紫	-12707
榜单	-12708
CV	-12709
弱点	-12710
果汁	-12711
莫斯科	-12712
就是这个	-12713
义务教育	-12714
前列腺	-12715
四种	-12716
对他的	-12717
不开心	-12718
所有人都	-12719
语句	-12720
准确的	-12721
揭示	-12722
第一季	-12723
在内	-12724
▁基于	-12725
建模	-12726
段的	-12727
犹太	-12728
在地上	-12729
游击	-12730
2.6	-12731
天然气	-12732
BN	-12733
恰当	-12734
相邻	-12735
8%	-12736
小三	-12737
开阔	-12738
冷冻	-12739
▁松	-12740
古老的	-12741
结石	-12742
保暖	-12743
ING	-12744
致使	-12745
▁安装	-12746
聊聊	-12747
两国	-12748
主的	-12749
双重	-12750
▁旅游	-12751
双眼皮	-12752
▁重庆	-12753
▁凯	-12754
另一半	-12755
导致了	-12756
他能	-12757
洗脸	-12758
交代	-12759
性地	-12760
贴近	-12761
潇洒	-12762
也是有	-12763
女演员	-12764
强奸	-12765
sm	-12766
You	-12767
这个游戏	-12768
的好处	-12769
的内	-12770
生活费	-12771
在使用	-12772
签字	-12773
手机上	-12774
无声	-12775
古人	-12776
固态	-12777
小平	-12778
多半	-12779
胡子	-12780
的家庭	-12781
违背	-12782
了解到	-12783
味精	-12784
轨道交通	-12785
也很好	-12786
物质的	-12787
6.0	-12788
这东西	-12789
▁完全	-12790
:978	-12791
所示	-12792
经营管理	-12793
关爱	-12794
会是	-12795
大头	-12796
条约	-12797
有空	-12798
沙滩	-12799
▁1990	-12800
减速	-12801
国民经济	-12802
早晚	-12803
他们是	-12804
总收入的	-12805
的人群	-12806
▁扁	-12807
▁流	-12808
变身	-12809
洗面	-12810
把手	-12811
平台的	-12812
新能源	-12813
消极	-12814
调剂	-12815
上进	-12816
顿时	-12817
会发生	-12818
gu	-12819
而知	-12820
SH	-12821
各地的	-12822
梦中	-12823
变化的	-12824
/5	-12825
学问	-12826
百家	-12827
背面	-12828
▁姜	-12829
为她	-12830
驱逐	-12831
广泛的	-12832
常住	-12833
樱花	-12834
礼品	-12835
▁画	-12836
嘴唇	-12837
德拉	-12838
道教	-12839
金奖	-12840
而成的	-12841
▁在这里	-12842
彩礼	-12843
外包	-12844
太差	-12845
农民人均纯收入	-12846
卫生院	-12847
技师	-12848
回避	-12849
逃跑	-12850
太少	-12851
找人	-12852
二十四	-12853
一组	-12854
——《	-12855
分了	-12856
90%	-12857
孙悟空	-12858
交通大学	-12859
碳酸	-12860
想在	-12861
打着	-12862
厨师	-12863
总数的	-12864
研究和	-12865
次会议	-12866
▁互联网	-12867
星际	-12868
欧盟	-12869
过程中的	-12870
扩建	-12871
无情	-12872
矿物	-12873
了一场	-12874
佛山市	-12875
宫廷	-12876
万像素	-12877
结构住房	-12878
▁Ad	-12879
他有	-12880
万年	-12881
就有了	-12882
▁待	-12883
愉悦	-12884
我应该	-12885
香气	-12886
一举	-12887
迷你	-12888
劣势	-12889
我最	-12890
十个	-12891
饺子	-12892
椭圆形	-12893
而生	-12894
特点是	-12895
▁母	-12896
ric	-12897
一见	-12898
保罗	-12899
眼球	-12900
工商行政管理局登记成立	-12901
得过	-12902
解剖	-12903
1982	-12904
:\	-12905
▁取	-12906
4.3	-12907
达不到	-12908
敢于	-12909
领土	-12910
▁针对	-12911
失落	-12912
小子	-12913
射程	-12914
山顶	-12915
媒介	-12916
房东	-12917
落户	-12918
调度	-12919
关卡	-12920
医生的	-12921
可靠性	-12922
▁总结	-12923
AG	-12924
黑龙江省	-12925
了出来	-12926
年份	-12927
得的	-12928
剧场版	-12929
德语	-12930
灰尘	-12931
因其	-12932
存的	-12933
是好	-12934
阵地	-12935
多功能	-12936
如果能	-12937
key	-12938
统一的	-12939
新一代	-12940
有限的	-12941
纹身	-12942
转行	-12943
来回答	-12944
以致	-12945
在他的	-12946
成名	-12947
▁Pl	-12948
ca	-12949
ara	-12950
,”	-12951
你把	-12952
神圣	-12953
涂抹	-12954
开辟	-12955
补水	-12956
金银	-12957
1111	-12958
更强	-12959
ret	-12960
是根据	-12961
会比较	-12962
▁发行	-12963
奠定了	-12964
的理解	-12965
图文	-12966
不能再	-12967
传动	-12968
经营者	-12969
▁晚	-12970
纯净	-12971
sin	-12972
省份	-12973
博士后	-12974
商学院	-12975
总产值	-12976
利物浦	-12977
部和	-12978
馒头	-12979
eel	-12980
同时也是	-12981
天王	-12982
调料	-12983
班里	-12984
口中	-12985
感和	-12986
的药	-12987
盛顿	-12988
飞车	-12989
:17	-12990
大体	-12991
相传	-12992
▁具有	-12993
▁27	-12994
的一生	-12995
都不一样	-12996
▁由此	-12997
配角	-12998
水肿	-12999
美味	-13000
毕业了	-13001
一种是	-13002
不一	-13003
安德	-13004
少林	-13005
亲身	-13006
▁运动	-13007
准备好	-13008
影评	-13009
333	-13010
伊斯兰	-13011
▁波	-13012
这才是	-13013
3500	-13014
不平	-13015
提及	-13016
热水器	-13017
▁材料	-13018
也都是	-13019
所以说	-13020
的一天	-13021
光荣	-13022
成像	-13023
一词	-13024
下雨	-13025
心肌	-13026
:40	-13027
家伙	-13028
erver	-13029
一发	-13030
偏见	-13031
拿起	-13032
除去	-13033
周刊	-13034
坏的	-13035
人多	-13036
条形	-13037
发展到	-13038
联保	-13039
▁教师	-13040
声优	-13041
▁影片	-13042
性疾病	-13043
饰品	-13044
一想	-13045
洛杉	-13046
都不敢	-13047
关了	-13048
种的	-13049
首页	-13050
电量	-13051
:50	-13052
脑洞	-13053
锦标赛	-13054
▁引	-13055
ton	-13056
这个名字	-13057
1983	-13058
告白	-13059
奥林匹	-13060
外资	-13061
留意	-13062
▁终于	-13063
▁发现	-13064
复试	-13065
会造成	-13066
让大家	-13067
这么大	-13068
追逐	-13069
▁qu	-13070
着一个	-13071
在我看来	-13072
9、	-13073
额度	-13074
▁核心	-13075
大同	-13076
▁回到	-13077
魔王	-13078
常务理事	-13079
数目	-13080
灭亡	-13081
▁照	-13082
悬赏	-13083
▁En	-13084
定向	-13085
▁编	-13086
制约	-13087
快要	-13088
主要包括	-13089
敬业	-13090
人情	-13091
▁35	-13092
ley	-13093
OH	-13094
业务的	-13095
为一体的	-13096
可不可以	-13097
搞得	-13098
思考题	-13099
了么	-13100
太宗	-13101
安县	-13102
降水量	-13103
这段时间	-13104
带到	-13105
彩票	-13106
都得	-13107
入职	-13108
洗脑	-13109
假日	-13110
确定的	-13111
▁史	-13112
风水	-13113
做到了	-13114
而有	-13115
主意	-13116
我俩	-13117
oll	-13118
通电	-13119
大王	-13120
这种事	-13121
IR	-13122
LOL	-13123
着力	-13124
冲洗	-13125
过头	-13126
着自己	-13127
入睡	-13128
ough	-13129
自然科学基金	-13130
神器	-13131
走廊	-13132
▁op	-13133
公示	-13134
敌人的	-13135
林果	-13136
交易所	-13137
就是了	-13138
4%	-13139
刘海	-13140
酸性	-13141
重重	-13142
里克	-13143
胞胎	-13144
美国人	-13145
用自己的	-13146
。。。。。。。。	-13147
家务	-13148
地貌	-13149
服从	-13150
▁齐	-13151
有几	-13152
法兰	-13153
省钱	-13154
建立在	-13155
班子	-13156
的成功	-13157
复查	-13158
▁防	-13159
卖了	-13160
才开始	-13161
选取	-13162
▁门	-13163
产妇	-13164
正如	-13165
点多	-13166
▁Ge	-13167
事宜	-13168
胚胎	-13169
推送	-13170
植株	-13171
文笔	-13172
变迁	-13173
两百	-13174
初三	-13175
弹药	-13176
+,	-13177
用在	-13178
落于	-13179
学会了	-13180
ron	-13181
▁Eng	-13182
父子	-13183
我希望	-13184
音量	-13185
电子产品	-13186
直辖	-13187
谎言	-13188
▁当然是	-13189
MBA	-13190
吸引力	-13191
何处	-13192
全镇	-13193
干活	-13194
礼拜	-13195
脚本	-13196
不会再	-13197
▁瑞	-13198
春风	-13199
550	-13200
▁要是	-13201
▁觉得	-13202
处理的	-13203
筹备	-13204
花开	-13205
装了	-13206
ero	-13207
你喜欢	-13208
▁加强	-13209
就是不	-13210
明珠	-13211
ior	-13212
▁ac	-13213
颜色的	-13214
圣母	-13215
复旦	-13216
考入	-13217
的做法	-13218
中途	-13219
▁序	-13220
维权	-13221
说起	-13222
你已经	-13223
化解	-13224
哭泣	-13225
武士	-13226
▁out	-13227
][	-13228
▁段	-13229
uck	-13230
减小	-13231
恋情	-13232
然后用	-13233
用以	-13234
搜集	-13235
日照	-13236
210	-13237
我以为	-13238
庄园	-13239
的房子	-13240
月子	-13241
黄瓜	-13242
▁蔡	-13243
兼顾	-13244
连载于	-13245
洛杉矶	-13246
相识	-13247
适配	-13248
是国家	-13249
设在	-13250
简化	-13251
安装了	-13252
▁第十章	-13253
▁广东	-13254
精神病	-13255
系统和	-13256
▁生日	-13257
立项	-13258
古老	-13259
坏人	-13260
下去了	-13261
▁智	-13262
最长	-13263
残留	-13264
核准	-13265
不代表	-13266
伴随	-13267
刻录	-13268
▁猫	-13269
始于	-13270
无忧	-13271
一般人	-13272
这种问题	-13273
投保	-13274
▁性	-13275
譬如	-13276
逝世	-13277
边境	-13278
▁与此同时	-13279
ari	-13280
▁女人	-13281
地在	-13282
新娘	-13283
斯顿	-13284
能使	-13285
角色的	-13286
制度的	-13287
动不动	-13288
但她	-13289
并有	-13290
释义	-13291
会比	-13292
清爽	-13293
阶段的	-13294
▁我妈	-13295
要知道	-13296
应注意	-13297
▁油	-13298
北宋	-13299
▁作者简介	-13300
标注	-13301
箱子	-13302
自拍	-13303
注释	-13304
狠狠	-13305
而来的	-13306
外壳	-13307
生活方式	-13308
驾驶员	-13309
再也	-13310
白酒	-13311
呼吸道	-13312
上演	-13313
兵力	-13314
会发现	-13315
一点都不	-13316
你最	-13317
航线	-13318
车主	-13319
LO	-13320
狭窄	-13321
这辈子	-13322
值的	-13323
可作为	-13324
三包服务	-13325
远方	-13326
这两种	-13327
北海	-13328
执政	-13329
精美	-13330
收回	-13331
引起了	-13332
孤立	-13333
车祸	-13334
具体情况	-13335
鹿晗	-13336
你自己的	-13337
世俗	-13338
乒乓	-13339
刻画	-13340
卡拉	-13341
邯郸	-13342
▁一次	-13343
自媒体	-13344
咸鱼	-13345
华硕	-13346
数据的	-13347
再看	-13348
相近	-13349
打动	-13350
解散	-13351
uch	-13352
这么做	-13353
音质	-13354
游览	-13355
多少人	-13356
没有办法	-13357
排序	-13358
ei	-13359
服务平台	-13360
丝绸	-13361
之分	-13362
费的	-13363
udio	-13364
的小孩	-13365
素质教育	-13366
越来越多的	-13367
工作项目	-13368
▁cm	-13369
画质	-13370
WE	-13371
▁一天	-13372
▁我不	-13373
带宽	-13374
网络小说	-13375
带给	-13376
评定	-13377
亚马逊	-13378
专心	-13379
油的	-13380
▁社	-13381
多看	-13382
机枪	-13383
Sp	-13384
▁接	-13385
▁说明	-13386
文化艺术	-13387
全校	-13388
▁以及	-13389
如果你是	-13390
万多	-13391
涂料	-13392
乳头	-13393
▁申请	-13394
还记得	-13395
▁那时候	-13396
我爱你	-13397
和弦	-13398
的金	-13399
儿科	-13400
听起来	-13401
▁乙	-13402
之所	-13403
如果你的	-13404
养护	-13405
用作	-13406
▁For	-13407
农业人口	-13408
世家	-13409
大爷	-13410
失效	-13411
▁歌	-13412
▁当年	-13413
初次	-13414
理所	-13415
enn	-13416
低下	-13417
0.3	-13418
是将	-13419
▁化学	-13420
梦里	-13421
洗涤	-13422
这样的话	-13423
花序	-13424
声器	-13425
院的	-13426
▁此后	-13427
ouse	-13428
ology	-13429
press	-13430
9.0	-13431
理解为	-13432
日常生活	-13433
在地	-13434
野外	-13435
魔鬼	-13436
十几年	-13437
上游	-13438
寒假	-13439
缩写	-13440
会自动	-13441
江山	-13442
国外的	-13443
整治	-13444
工程专业	-13445
附录	-13446
第一批	-13447
也可能是	-13448
斯塔	-13449
hu	-13450
▁查	-13451
有名	-13452
新一	-13453
产业链	-13454
睡了	-13455
随即	-13456
美术馆	-13457
老头	-13458
只有在	-13459
遇到的	-13460
也叫	-13461
属于自己的	-13462
交响	-13463
多喝水	-13464
也比	-13465
支柱	-13466
温水	-13467
青睐	-13468
你可能	-13469
南宋	-13470
我看到	-13471
水资源	-13472
▁get	-13473
box	-13474
的水平	-13475
看看吧	-13476
七八糟	-13477
月球	-13478
世代	-13479
颈椎	-13480
款的	-13481
贵妃	-13482
远古	-13483
步步	-13484
艾滋	-13485
大姐	-13486
督促	-13487
电动车	-13488
科普中国	-13489
通报	-13490
って	-13491
小弟	-13492
▁3,	-13493
],	-13494
增高	-13495
起草	-13496
多是	-13497
评委	-13498
七月	-13499
的风格	-13500
引力	-13501
工程建设	-13502
绿茶	-13503
罪恶	-13504
区块	-13505
▁如果有	-13506
照样	-13507
难点	-13508
不可思议	-13509
界限	-13510
德军	-13511
颁布	-13512
喜爱的	-13513
华语	-13514
好转	-13515
发泄	-13516
▁设计师	-13517
java	-13518
一定程度上	-13519
陈列	-13520
下游	-13521
代夫	-13522
▁使	-13523
不忍	-13524
导游	-13525
报酬	-13526
靠着	-13527
无锡	-13528
因为它	-13529
容易被	-13530
拖延	-13531
保管	-13532
ange	-13533
中性	-13534
赠送	-13535
硬度	-13536
新媒体	-13537
还有个	-13538
0.8	-13539
下一步	-13540
中路	-13541
名著	-13542
庄村	-13543
拼搏	-13544
评论区	-13545
开发者	-13546
悬疑	-13547
超过了	-13548
那段	-13549
能找到	-13550
路易斯	-13551
无语	-13552
支气管	-13553
的母亲	-13554
大妈	-13555
起名	-13556
这件事情	-13557
基准	-13558
重伤	-13559
一切都	-13560
只要是	-13561
手套	-13562
标本	-13563
决战	-13564
的都	-13565
的责任	-13566
】【	-13567
拿下	-13568
广州市	-13569
———	-13570
洗手	-13571
申诉	-13572
充分利用	-13573
路边	-13574
虽说	-13575
野生动物	-13576
钱包	-13577
铸造	-13578
增添	-13579
分期	-13580
asp	-13581
有的时候	-13582
8.0	-13583
▁[16]	-13584
的营养	-13585
▁维	-13586
靠自己	-13587
▁不知	-13588
就算了	-13589
等方式	-13590
有小	-13591
说的话	-13592
三世	-13593
剧组	-13594
的人类	-13595
不就	-13596
庞大的	-13597
对我来说	-13598
不容	-13599
在世界	-13600
只是为了	-13601
转入	-13602
可以不	-13603
▁就这样	-13604
心跳	-13605
仙剑	-13606
文凭	-13607
没有那么	-13608
行者	-13609
掩盖	-13610
经济社会	-13611
就此	-13612
▁商	-13613
膳食	-13614
这篇	-13615
▁标准	-13616
察觉	-13617
既是	-13618
机票	-13619
开个	-13620
▁佳	-13621
科学历	-13622
ocal	-13623
河道	-13624
ris	-13625
网站上	-13626
▁这时候	-13627
炫耀	-13628
的血	-13629
县人民政府	-13630
燃油	-13631
陪我	-13632
法治	-13633
da	-13634
一辈	-13635
▁所属	-13636
的事业	-13637
大帝	-13638
腹痛	-13639
部电影	-13640
光照	-13641
的单	-13642
词条编写	-13643
两张	-13644
嵌入式	-13645
第三节	-13646
▁易	-13647
头疼	-13648
实木	-13649
▁app	-13650
与应用工作项目	-13651
词条编写与应用工作项目	-13652
原生	-13653
的山	-13654
能够在	-13655
一九	-13656
学专业	-13657
言情小说	-13658
毒素	-13659
儒家	-13660
处长	-13661
▁二是	-13662
与我	-13663
免疫力	-13664
赌博	-13665
软件的	-13666
之大	-13667
启蒙	-13668
六十	-13669
注明	-13670
风景区	-13671
科室	-13672
外来	-13673
针灸	-13674
诺贝尔	-13675
工作了	-13676
boss	-13677
未成年人	-13678
到手	-13679
甲状腺	-13680
领导的	-13681
脚下	-13682
▁皮	-13683
不凡	-13684
或多	-13685
自豪	-13686
第三个	-13687
可笑	-13688
可选	-13689
第十三	-13690
▁1988	-13691
你是不是	-13692
替补	-13693
装有	-13694
▁功能	-13695
本办法	-13696
对立	-13697
▁中央	-13698
微博上	-13699
规划和	-13700
PPT	-13701
第二百	-13702
也有很多	-13703
师兄	-13704
就是这么	-13705
往后	-13706
▁博	-13707
最早的	-13708
诚实	-13709
向我	-13710
大军	-13711
颠覆	-13712
战斗中	-13713
▁却	-13714
暴击	-13715
曲折	-13716
制造商	-13717
散发	-13718
房租	-13719
镜片	-13720
系统中	-13721
reg	-13722
而无	-13723
▁→	-13724
内容包括	-13725
发现自己的	-13726
躲避	-13727
粉碎	-13728
压器	-13729
之乡	-13730
led	-13731
影响了	-13732
担忧	-13733
李白	-13734
cpu	-13735
的小伙伴	-13736
连云港	-13737
行政部门	-13738
日文	-13739
股价	-13740
项链	-13741
寻常	-13742
视线	-13743
ement	-13744
倒了	-13745
ions	-13746
逃脱	-13747
▁最佳	-13748
乱七八糟	-13749
科学发展	-13750
徒弟	-13751
国际化	-13752
市场经济	-13753
就必须	-13754
她会	-13755
老妈	-13756
650	-13757
合作关系	-13758
▁comp	-13759
▁贝	-13760
rans	-13761
绝缘	-13762
教学楼	-13763
能力强	-13764
bc	-13765
这三	-13766
280	-13767
ift	-13768
挂了	-13769
109	-13770
完成后	-13771
来不及	-13772
现为	-13773
,2010	-13774
的红	-13775
▁养	-13776
wit	-13777
屋顶	-13778
▁Cl	-13779
同胞	-13780
加州	-13781
就一直	-13782
已经很	-13783
之初	-13784
韭菜	-13785
四月	-13786
色调	-13787
占总收入的	-13788
会有人	-13789
移动通信	-13790
曲子	-13791
下巴	-13792
提议	-13793
树林	-13794
部级	-13795
男士	-13796
▁2.0	-13797
▁加油	-13798
只能在	-13799
因为在	-13800
帮助下	-13801
供养	-13802
AY	-13803
长发	-13804
明清	-13805
的来	-13806
▁Part	-13807
上图	-13808
```	-13809
畜牧业	-13810
赶快	-13811
▁what	-13812
的时候我	-13813
悲哀	-13814
阵营	-13815
深厚	-13816
面料	-13817
战绩	-13818
重型	-13819
太郎	-13820
请不要	-13821
重点实验室	-13822
两面	-13823
患有	-13824
疲惫	-13825
妈妈的	-13826
菜鸟	-13827
壮大	-13828
充电器	-13829
光绪	-13830
过关	-13831
四方	-13832
改了	-13833
接受的	-13834
分析和	-13835
▁关注	-13836
面貌	-13837
▁注册	-13838
英特尔	-13839
科技创新	-13840
▁天天	-13841
综艺节目	-13842
方法和	-13843
什么问题	-13844
▁孟	-13845
▁鬼	-13846
义项	-13847
潜意识	-13848
拇指	-13849
屠杀	-13850
烟台	-13851
觉得我	-13852
的在	-13853
▁依	-13854
-40	-13855
▁异	-13856
病理	-13857
由中国	-13858
1300	-13859
实体店	-13860
BE	-13861
过我	-13862
通车	-13863
bps	-13864
▁19.	-13865
差不多的	-13866
不是我	-13867
防火墙	-13868
几位	-13869
ontro	-13870
NF	-13871
0.2	-13872
的头	-13873
赞美	-13874
9%	-13875
读取	-13876
▁你说	-13877
LC	-13878
定居	-13879
本能	-13880
消失了	-13881
你再	-13882
农民收入	-13883
该剧	-13884
1400	-13885
一个星期	-13886
ude	-13887
华南	-13888
四人	-13889
堆积	-13890
720	-13891
基础的	-13892
零部件	-13893
-50	-13894
ana	-13895
而言之	-13896
野心	-13897
文物保护单位	-13898
▁设	-13899
变速箱	-13900
研究成果	-13901
NT	-13902
文人	-13903
合格的	-13904
管理学	-13905
全集	-13906
直达	-13907
▁冯	-13908
浪费时间	-13909
潮湿	-13910
3-5	-13911
薪酬	-13912
这本	-13913
▁生物	-13914
市面上	-13915
过期	-13916
先进集体	-13917
钢筋	-13918
▁Me	-13919
麦克风	-13920
思想政治	-13921
合作的	-13922
,,,,	-13923
布朗	-13924
黑色的	-13925
破了	-13926
举行的	-13927
医院的	-13928
完之后	-13929
大部分人	-13930
举动	-13931
-----	-13932
上车	-13933
村里	-13934
也算是	-13935
因为这个	-13936
在天	-13937
的第	-13938
这种东西	-13939
索引	-13940
,11	-13941
加成	-13942
姥姥	-13943
▁性格	-13944
著有	-13945
下水	-13946
交了	-13947
解毒	-13948
停留	-13949
列举	-13950
很是	-13951
肾脏	-13952
104	-13953
坚信	-13954
板上	-13955
邮票	-13956
但如果	-13957
销售额	-13958
航海	-13959
五金	-13960
肢体	-13961
买车	-13962
制剂	-13963
将领	-13964
的传统	-13965
假货	-13966
开店	-13967
中文网	-13968
兵团	-13969
这几天	-13970
卡通	-13971
环绕	-13972
他们会	-13973
ize	-13974
弹幕	-13975
这才	-13976
色泽	-13977
1。	-13978
/8	-13979
石灰	-13980
过往	-13981
打不开	-13982
比重	-13983
电影院	-13984
聘请	-13985
网点	-13986
使者	-13987
率达	-13988
▁He	-13989
企业和	-13990
olo	-13991
▁new	-13992
▁大部分	-13993
之余	-13994
▁res	-13995
原先	-13996
AF	-13997
达摩	-13998
受害者	-13999
CEO	-14000
社会保障	-14001
是做	-14002
心脏病	-14003
的职业	-14004
这种情况下	-14005
MC	-14006
古装	-14007
马克思主义	-14008
▁摄影	-14009
生产总值	-14010
可以参考	-14011
战争中	-14012
本来就	-14013
▁精	-14014
堵塞	-14015
板的	-14016
本着	-14017
再多	-14018
是会	-14019
白糖	-14020
PI	-14021
格林	-14022
chool	-14023
喜悦	-14024
本次	-14025
(8	-14026
优酷	-14027
实现的	-14028
是一本	-14029
都无法	-14030
文件的	-14031
▁页	-14032
审议	-14033
▁Tr	-14034
八月	-14035
133	-14036
▁在中国	-14037
长寿	-14038
马斯	-14039
伪装	-14040
也别	-14041
一步步	-14042
为目标	-14043
查到	-14044
思想的	-14045
▁我会	-14046
丝毫	-14047
为首	-14048
体外	-14049
蔷薇	-14050
一起玩	-14051
缓冲	-14052
参考书	-14053
不断提高	-14054
古今	-14055
搬运	-14056
的组织	-14057
+3	-14058
为大	-14059
看你的	-14060
身边的人	-14061
人民检察院	-14062
会员代表大会	-14063
▁杭州	-14064
贯彻执行	-14065
格格	-14066
很难受	-14067
包子	-14068
晚了	-14069
英超	-14070
面具	-14071
矿物质	-14072
缅甸	-14073
办公厅	-14074
甄嬛	-14075
京剧	-14076
夺取	-14077
中共中央	-14078
单击	-14079
这三个	-14080
一向	-14081
修饰	-14082
106	-14083
迪士尼	-14084
中西医	-14085
雷霆	-14086
▁你想	-14087
格式化	-14088
了很久	-14089
深渊	-14090
一直到	-14091
全长	-14092
颁发的	-14093
得意	-14094
至尊	-14095
陪你	-14096
▁另一方面	-14097
了对	-14098
了大	-14099
主页	-14100
老化	-14101
重点是	-14102
叛逆	-14103
德尔	-14104
知友	-14105
小结	-14106
网店	-14107
尼克	-14108
早孕	-14109
有什么用	-14110
湖人	-14111
物语	-14112
和我们	-14113
▁全年	-14114
整整	-14115
偏差	-14116
▁宝马	-14117
不重要	-14118
外国语	-14119
显微	-14120
▁鱼	-14121
服务员	-14122
生产基地	-14123
二十年	-14124
工作和	-14125
▁借	-14126
直流	-14127
▁20.	-14128
制备	-14129
纸上	-14130
▁适用	-14131
跑去	-14132
黎明	-14133
可以买	-14134
下载地址	-14135
考场	-14136
▁主板	-14137
绝对的	-14138
脂肪酸	-14139
棕色	-14140
▁出版时间	-14141
我的心	-14142
步入	-14143
背部	-14144
一书	-14145
画风	-14146
其中包括	-14147
也开始	-14148
后赛	-14149
▁这也是	-14150
▁不然	-14151
▁[1-2]	-14152
4:	-14153
将于	-14154
▁听说	-14155
*******	-14156
震动	-14157
饱满	-14158
杀伤	-14159
碳水	-14160
小腿	-14161
吸入	-14162
长短	-14163
汇总	-14164
3-4	-14165
,2008	-14166
采用的	-14167
5.1	-14168
丹麦	-14169
的通知	-14170
战中	-14171
局域网	-14172
fl	-14173
7.0	-14174
不佳	-14175
▁每年	-14176
大米	-14177
口头	-14178
你都	-14179
尺度	-14180
—19	-14181
齿轮	-14182
1080	-14183
率高	-14184
▁一定要	-14185
科院	-14186
只剩下	-14187
的人来说	-14188
双向	-14189
森林公园	-14190
这部电影	-14191
接种	-14192
从一个	-14193
的定义	-14194
▁800	-14195
消化不良	-14196
(11	-14197
下载的	-14198
还不够	-14199
天线	-14200
无形	-14201
ren	-14202
和社会保障	-14203
不是你	-14204
全场	-14205
限度	-14206
▁华为	-14207
更何况	-14208
▁顾	-14209
汉服	-14210
批量	-14211
油耗	-14212
特勒	-14213
数额	-14214
,17	-14215
▁一旦	-14216
和使用	-14217
辅导员	-14218
的秘密	-14219
死者	-14220
自古	-14221
谈论	-14222
钱了	-14223
引人	-14224
那么大	-14225
▁才	-14226
海峡	-14227
考试的	-14228
(4)	-14229
下设	-14230
我是个	-14231
考点	-14232
只是想	-14233
▁联想	-14234
1～	-14235
客场	-14236
俄语	-14237
出任	-14238
轮廓	-14239
它在	-14240
▁众	-14241
主治	-14242
团购	-14243
1/3	-14244
其所	-14245
只是个	-14246
让宝宝	-14247
增生	-14248
护照	-14249
▁空调	-14250
中心的	-14251
话题下的	-14252
同伴	-14253
帮帮我	-14254
实践中	-14255
无毛	-14256
样品	-14257
再一次	-14258
背景音乐	-14259
擅自	-14260
衰竭	-14261
比较喜欢	-14262
能做	-14263
饮酒	-14264
值为	-14265
我做	-14266
淋漓	-14267
党委委员	-14268
;《	-14269
;2	-14270
一圈	-14271
好呢	-14272
田园	-14273
▁必须	-14274
羽毛球	-14275
亮相	-14276
ated	-14277
机和	-14278
杀菌	-14279
家境	-14280
明日	-14281
芙蓉	-14282
突出的	-14283
的一样	-14284
晚饭	-14285
拉着	-14286
肉类	-14287
Force	-14288
▁1985	-14289
随身	-14290
马力	-14291
弹出	-14292
降低了	-14293
国语	-14294
,2000	-14295
也想	-14296
法术	-14297
占了	-14298
率的	-14299
万分	-14300
套房	-14301
望着	-14302
愚蠢	-14303
演义	-14304
分钟后	-14305
九月	-14306
中国经济	-14307
outh	-14308
会给	-14309
▁重新	-14310
虽然是	-14311
再现	-14312
麻将	-14313
有的是	-14314
可根据	-14315
绝不	-14316
没见过	-14317
创业者	-14318
信托	-14319
set	-14320
上层	-14321
不下去	-14322
的身体	-14323
要的	-14324
津贴	-14325
相对来说	-14326
听歌	-14327
看懂	-14328
▁but	-14329
人民的	-14330
aj	-14331
也为	-14332
迈克尔	-14333
冲锋	-14334
▁让我	-14335
▁怎么看待	-14336
成份	-14337
银行的	-14338
▁我和	-14339
停留在	-14340
一小时	-14341
ery	-14342
VR	-14343
漫游	-14344
毕业证	-14345
水源	-14346
也只有	-14347
留给	-14348
了一遍	-14349
发给	-14350
ams	-14351
比较有	-14352
ROM	-14353
生长发育	-14354
为一个	-14355
打过	-14356
苦恼	-14357
西游记	-14358
命的	-14359
ward	-14360
地主	-14361
耕地面积	-14362
不离	-14363
耶稣	-14364
里奥	-14365
你就是	-14366
模式的	-14367
实业	-14368
也不敢	-14369
▁你觉得	-14370
▁图片	-14371
存活	-14372
对我的	-14373
表决	-14374
GPS	-14375
家庭的	-14376
不甘	-14377
领悟	-14378
逾期	-14379
Ph	-14380
细心	-14381
▁独	-14382
你要是	-14383
然后把	-14384
胆固醇	-14385
了怎么办	-14386
260	-14387
他去	-14388
厂房	-14389
将成为	-14390
俊杰	-14391
穷人	-14392
投机	-14393
放开	-14394
太大的	-14395
降临	-14396
5.2	-14397
光电	-14398
▁如果说	-14399
接纳	-14400
位数	-14401
不属于	-14402
就只能	-14403
马尾	-14404
市场监督	-14405
与众	-14406
耐用	-14407
南山	-14408
胶原	-14409
oid	-14410
▁刚刚	-14411
如果说	-14412
仇恨	-14413
▁卢	-14414
兽医	-14415
生生	-14416
今年的	-14417
的一项	-14418
你可以去	-14419
整容	-14420
薪资	-14421
豆浆	-14422
读了	-14423
交界	-14424
别名	-14425
鸳鸯	-14426
999	-14427
养的	-14428
119	-14429
变异	-14430
截至	-14431
▁My	-14432
奇怪的	-14433
快乐的	-14434
还很	-14435
▁开本	-14436
经济效益	-14437
吃喝	-14438
▁1989	-14439
就叫	-14440
的建议	-14441
标志着	-14442
2.7	-14443
成立的	-14444
博士生导师	-14445
布莱	-14446
一瓶	-14447
聚焦	-14448
大卫	-14449
转折	-14450
努力的	-14451
是国内	-14452
高品质	-14453
磁场	-14454
前置	-14455
混沌	-14456
耐磨	-14457
添加剂	-14458
不那么	-14459
入坑	-14460
洪水	-14461
目的地	-14462
学术论文	-14463
二世	-14464
区委	-14465
▁控制	-14466
等各种	-14467
的衣服	-14468
丘陵	-14469
声称	-14470
三部	-14471
断裂	-14472
可知	-14473
相等	-14474
▁湖南	-14475
话题下的优秀回答者	-14476
时要	-14477
角质	-14478
▁小学	-14479
折扣	-14480
流星	-14481
orn	-14482
以色列	-14483
参见	-14484
位列	-14485
症的	-14486
一大堆	-14487
原材料	-14488
意境	-14489
装配	-14490
原有的	-14491
外人	-14492
之名	-14493
国际机场	-14494
▁剑	-14495
一试	-14496
高等院校	-14497
解决的	-14498
这只	-14499
成功了	-14500
网站的	-14501
要不然	-14502
东风	-14503
▁建立	-14504
为企业	-14505
年到	-14506
方法是	-14507
特产	-14508
洗面奶	-14509
储量	-14510
使他	-14511
卖出	-14512
住的	-14513
八大	-14514
出现过	-14515
稀释	-14516
道题	-14517
季后赛	-14518
情况的	-14519
平和	-14520
达尔	-14521
lol	-14522
▁父亲	-14523
华盛顿	-14524
之夜	-14525
▁投资	-14526
然的	-14527
和工作	-14528
以及其他	-14529
面积为	-14530
跨境	-14531
结实	-14532
城墙	-14533
▁就在	-14534
第二届	-14535
锤子	-14536
个人感觉	-14537
内核	-14538
庆幸	-14539
荧光	-14540
冷淡	-14541
的女朋友	-14542
营业执照	-14543
人民群众	-14544
话剧	-14545
交谈	-14546
外套	-14547
或有	-14548
登山	-14549
日上午	-14550
▁day	-14551
驾照	-14552
▁适合	-14553
不了了	-14554
幽灵	-14555
紫外线	-14556
主场	-14557
巧合	-14558
机能	-14559
硬的	-14560
短时间内	-14561
家里人	-14562
,2009	-14563
物料	-14564
寺庙	-14565
交替	-14566
所未	-14567
细分	-14568
▁有时	-14569
、2	-14570
科学百科	-14571
站的	-14572
ty	-14573
站着	-14574
扣除	-14575
预定	-14576
▁轻	-14577
被抓	-14578
给力	-14579
TD	-14580
后天	-14581
第二章	-14582
～～～～	-14583
史料	-14584
红柿	-14585
一定能	-14586
生产经营	-14587
八十	-14588
原地	-14589
本草	-14590
换一个	-14591
以防	-14592
深情	-14593
TO	-14594
不懈	-14595
的大学	-14596
的最佳	-14597
103	-14598
保定	-14599
堕落	-14600
景象	-14601
温州	-14602
讨好	-14603
▁我很	-14604
最主要	-14605
到底是什么	-14606
出错	-14607
-10-	-14608
就成了	-14609
自如	-14610
的范围	-14611
自己想	-14612
侵害	-14613
▁man	-14614
▁至少	-14615
简直是	-14616
帅气	-14617
问答	-14618
什么叫	-14619
来看看	-14620
瓶颈	-14621
仓储	-14622
怎么可能	-14623
尼奥	-14624
音箱	-14625
主线	-14626
▁论	-14627
专卖店	-14628
舌头	-14629
指引	-14630
超人	-14631
▁超级	-14632
▁10、	-14633
▁[17]	-14634
内膜	-14635
泡泡	-14636
DH	-14637
▁赛	-14638
▁这款	-14639
这些问题	-14640
第一步	-14641
▁工程	-14642
▁3)	-14643
并被	-14644
科学百科词条编写与应用工作项目	-14645
联手	-14646
(2):《	-14647
亲属	-14648
隐瞒	-14649
来临	-14650
句话说	-14651
西斯	-14652
▁问题分析	-14653
PA	-14654
亨利	-14655
指定的	-14656
吓得	-14657
▁可惜	-14658
的宝宝	-14659
无处	-14660
沐浴	-14661
▁值得	-14662
选择题	-14663
博弈	-14664
▁(6)	-14665
不爽	-14666
首领	-14667
那一刻	-14668
可视	-14669
转为	-14670
发生过	-14671
▁回答	-14672
但是如果	-14673
初心	-14674
湖泊	-14675
勋章	-14676
流派	-14677
下令	-14678
ano	-14679
计划的	-14680
时就	-14681
复发	-14682
高音	-14683
生产力	-14684
没有一个	-14685
唤醒	-14686
启用	-14687
名额	-14688
洗发	-14689
粉底	-14690
改名	-14691
演的	-14692
ress	-14693
当他	-14694
我们家	-14695
相思	-14696
余年	-14697
好心	-14698
学说	-14699
车程	-14700
30%	-14701
和方法	-14702
实用性	-14703
无辜	-14704
滑雪	-14705
办公室主任	-14706
投篮	-14707
动车	-14708
行人	-14709
鸡肉	-14710
还会有	-14711
-11-	-14712
季度	-14713
花样	-14714
▁银行	-14715
▁雨	-14716
省的	-14717
搬家	-14718
半导体	-14719
乖乖	-14720
拉的	-14721
碱性	-14722
西湖	-14723
企事业单位	-14724
尤为	-14725
观的	-14726
rit	-14727
政策和	-14728
工地	-14729
言之	-14730
htm	-14731
台式机	-14732
-12-	-14733
是无法	-14734
公证	-14735
新产品	-14736
琢磨	-14737
168	-14738
)《	-14739
▁江苏	-14740
高中的	-14741
衣物	-14742
▁29	-14743
ublic	-14744
▁曲	-14745
虚假	-14746
取向	-14747
▁300	-14748
传说中的	-14749
农家	-14750
ily	-14751
基本信息	-14752
Web	-14753
有很大	-14754
中的应用	-14755
2～	-14756
带你	-14757
VID	-14758
▁如果没有	-14759
咽喉	-14760
Tunes	-14761
国家和地区	-14762
看清	-14763
一家人	-14764
女权	-14765
面条	-14766
在与	-14767
▁穿	-14768
肉体	-14769
解决办法	-14770
上千	-14771
治病	-14772
obe	-14773
的一大	-14774
往往是	-14775
mmmm	-14776
do	-14777
中国古代	-14778
新年	-14779
的观点	-14780
速度快	-14781
艺术学院	-14782
通关	-14783
一般为	-14784
好吃的	-14785
一处	-14786
我只能	-14787
esign	-14788
扁平	-14789
小红	-14790
ME	-14791
必杀	-14792
有心	-14793
锅中	-14794
▁1984	-14795
群的	-14796
发展战略	-14797
一般都	-14798
爱吃	-14799
做朋友	-14800
六月	-14801
特别喜欢	-14802
▁游	-14803
意甲	-14804
饥饿	-14805
多一点	-14806
▁则	-14807
念念	-14808
▁don	-14809
心目	-14810
脊柱	-14811
鹦鹉	-14812
用手机	-14813
历年	-14814
二次元	-14815
曾经的	-14816
最适合	-14817
离合	-14818
小伙	-14819
警惕	-14820
好莱坞	-14821
告诉我们	-14822
通过对	-14823
疤痕	-14824
以人为本	-14825
传授	-14826
这是个	-14827
国土资源	-14828
格里	-14829
▁纠错	-14830
▁上面	-14831
泰山	-14832
不相信	-14833
丽丝	-14834
溶剂	-14835
经济管理	-14836
▁....	-14837
来得及	-14838
社会上	-14839
同盟	-14840
什么地方	-14841
▁镇	-14842
去吧	-14843
年少	-14844
▁曾任	-14845
镶嵌	-14846
藏在	-14847
▁02	-14848
如何看待	-14849
故事的	-14850
此后	-14851
染色体	-14852
分娩	-14853
▁去年	-14854
兴建	-14855
网民	-14856
还被	-14857
放的	-14858
奥斯卡	-14859
▁不仅	-14860
在不	-14861
MT	-14862
二月	-14863
声誉	-14864
研究方向	-14865
奇艺	-14866
点钱	-14867
▁程	-14868
巡航	-14869
干啥	-14870
ane	-14871
一生的	-14872
ason	-14873
私下	-14874
磷酸	-14875
前三	-14876
这方面的	-14877
还将	-14878
▁我当时	-14879
▁包装	-14880
▁1.2	-14881
富豪	-14882
-1)	-14883
来月经	-14884
镜像	-14885
▁卷	-14886
本质上	-14887
话题的	-14888
专业知识	-14889
专科学校	-14890
大力发展	-14891
offer	-14892
亲王	-14893
ations	-14894
ternational	-14895
包含了	-14896
十二年	-14897
我们学校	-14898
票价	-14899
追加	-14900
总线	-14901
行车	-14902
区和	-14903
选秀	-14904
出一	-14905
▁医院	-14906
头顶	-14907
徒刑	-14908
药店	-14909
▁准备	-14910
所需的	-14911
自然保护区	-14912
二氧化碳	-14913
不买	-14914
白银	-14915
管理器	-14916
省会	-14917
注册表	-14918
▁演	-14919
▁也可以	-14920
后世	-14921
事物的	-14922
所以你	-14923
wo	-14924
二胎	-14925
大四	-14926
卵形	-14927
水货	-14928
▁×	-14929
同龄	-14930
燕子	-14931
一听	-14932
他没有	-14933
伤亡	-14934
柔和	-14935
废弃	-14936
功德	-14937
坚守	-14938
忙碌	-14939
必须在	-14940
怎样才能	-14941
求生	-14942
ute	-14943
▁01	-14944
城里	-14945
大学毕业	-14946
伴奏	-14947
非常重要	-14948
宫外	-14949
静止	-14950
▁en	-14951
居委会	-14952
3.8	-14953
我的电脑	-14954
沉浸	-14955
量化	-14956
长远	-14957
怪的	-14958
人物的	-14959
▁1991	-14960
ye	-14961
外貌	-14962
交警	-14963
话语	-14964
追星	-14965
上古	-14966
副校长	-14967
大概率	-14968
▁Love	-14969
▁情	-14970
生前	-14971
▁03	-14972
找的	-14973
对焦	-14974
滑稽	-14975
领导小组	-14976
▁雅	-14977
之外的	-14978
是属于	-14979
YS	-14980
肤色	-14981
神经系统	-14982
出家	-14983
预报	-14984
扬声器	-14985
多说	-14986
保姆	-14987
胎盘	-14988
年任	-14989
源头	-14990
吃到	-14991
打法	-14992
维度	-14993
枕头	-14994
旁边的	-14995
她和	-14996
放学	-14997
▁西安	-14998
三代	-14999
片尾	-15000
拟定	-15001
咨询服务	-15002
吃饱	-15003
▁外观	-15004
一个小时	-15005
历史文化	-15006
盛典	-15007
,2007	-15008
到什么程度	-15009
脸色	-15010
辨别	-15011
分钟左右	-15012
加水	-15013
反之	-15014
对孩子	-15015
帮助你	-15016
仍在	-15017
睫毛	-15018
▁more	-15019
构思	-15020
清热	-15021
▁◎	-15022
被别人	-15023
木有	-15024
草药	-15025
ump	-15026
可比	-15027
打球	-15028
晋级	-15029
▁谁有	-15030
是目前	-15031
挂在	-15032
发达国家	-15033
百花	-15034
越是	-15035
十佳	-15036
的正	-15037
答复	-15038
在国际	-15039
^2	-15040
▁工业	-15041
心理健康	-15042
想把	-15043
有力的	-15044
但没有	-15045
行政执法	-15046
图纸	-15047
应变	-15048
早起	-15049
万左右	-15050
吃奶	-15051
也无	-15052
nm	-15053
▁人家	-15054
音效	-15055
RMB	-15056
医生说	-15057
▁词	-15058
低端	-15059
关村	-15060
生平	-15061
点儿	-15062
各自的	-15063
密的	-15064
枯燥	-15065
一个女生	-15066
商用	-15067
奇的	-15068
影院	-15069
选的	-15070
▁在这	-15071
婚前	-15072
(7	-15073
▁点击	-15074
近几年	-15075
▁第六节	-15076
门店	-15077
下跌	-15078
抵抗力	-15079
=4	-15080
微商	-15081
工商管理	-15082
大国	-15083
金色	-15084
的经营	-15085
▁Fil	-15086
圆柱	-15087
▁高三	-15088
在校生	-15089
▁怎么样	-15090
▁刷	-15091
哥伦比亚	-15092
已是	-15093
两周	-15094
发扬	-15095
海域	-15096
化验	-15097
脉冲	-15098
菲尔	-15099
irst	-15100
ervice	-15101
梦境	-15102
周围的	-15103
对我说	-15104
清明	-15105
看电视	-15106
恋爱的	-15107
妈咪	-15108
出名	-15109
提问者	-15110
是啥	-15111
▁短	-15112
安定	-15113
上厕所	-15114
在剧中	-15115
)_	-15116
乙烯	-15117
------	-15118
草案	-15119
户居住	-15120
,2006	-15121
氏族	-15122
吸毒	-15123
缓缓	-15124
的两个	-15125
年的时间	-15126
▁————————	-15127
不要去	-15128
一般情况下	-15129
便可	-15130
名录	-15131
格的	-15132
防卫	-15133
灭绝	-15134
只为	-15135
▁存储	-15136
(13	-15137
▁微信公众号	-15138
想念	-15139
磨损	-15140
是完全	-15141
年年	-15142
相互作用	-15143
▁se	-15144
的一首	-15145
带我	-15146
育人	-15147
是否能	-15148
▁为什么我	-15149
地势	-15150
定点	-15151
BIOS	-15152
漫长的	-15153
华中	-15154
大都	-15155
评判	-15156
亲爱的	-15157
演化	-15158
的表情	-15159
严厉	-15160
的运动	-15161
就比较	-15162
守望	-15163
由来	-15164
加强对	-15165
每个人都	-15166
旅馆	-15167
▁你见过	-15168
一贯	-15169
分级	-15170
▁1986	-15171
订阅	-15172
清楚的	-15173
助力	-15174
撒娇	-15175
GS	-15176
▁[4	-15177
发布了	-15178
热烈	-15179
小火	-15180
追溯	-15181
饼干	-15182
教育和	-15183
孤儿	-15184
第十一	-15185
肝炎	-15186
规范化	-15187
大侠	-15188
的评价	-15189
▁算	-15190
吸取	-15191
主要用于	-15192
调和	-15193
二字	-15194
名声	-15195
拉开	-15196
数字化	-15197
埃尔	-15198
可能就是	-15199
官方网站	-15200
加我	-15201
说明了	-15202
▁希	-15203
品位	-15204
阅览	-15205
眉毛	-15206
iu	-15207
衬衫	-15208
在海	-15209
坚固	-15210
英文名	-15211
烦躁	-15212
旅行社	-15213
的处理	-15214
站起来	-15215
因人而	-15216
这部分	-15217
让你觉得	-15218
心意	-15219
QL	-15220
至上	-15221
经验和	-15222
占比	-15223
可通过	-15224
有以下	-15225
夕阳	-15226
奔腾	-15227
管理与	-15228
down	-15229
规划教材	-15230
先用	-15231
的因素	-15232
极高	-15233
远处	-15234
eop	-15235
都有自己的	-15236
大全	-15237
必有	-15238
使用者	-15239
噩梦	-15240
逆转	-15241
无线电	-15242
指教	-15243
同期	-15244
小号	-15245
等相关	-15246
▁一开始	-15247
得住	-15248
报仇	-15249
任性	-15250
外在	-15251
宣告	-15252
副部长	-15253
眼皮	-15254
走势	-15255
买一个	-15256
不正常	-15257
▁叫	-15258
削弱	-15259
▁方法	-15260
人来	-15261
通往	-15262
▁为此	-15263
应有	-15264
40.	-15265
▁一是	-15266
▁继续	-15267
▁电池	-15268
月中旬	-15269
纳斯	-15270
日下午	-15271
疙瘩	-15272
奥地利	-15273
▁剧	-15274
不方便	-15275
▁1000	-15276
信贷	-15277
浴室	-15278
雄厚	-15279
▁u	-15280
不正	-15281
▁质保	-15282
矿产资源	-15283
力争	-15284
帮她	-15285
▁康	-15286
炒作	-15287
我校	-15288
男票	-15289
精湛	-15290
存档	-15291
获胜	-15292
额定	-15293
▁除非	-15294
的形成	-15295
的最后	-15296
乐意	-15297
光纤	-15298
):《	-15299
但其实	-15300
保持着	-15301
也曾	-15302
拉肚子	-15303
水流	-15304
安东	-15305
太祖	-15306
仍是	-15307
特工	-15308
墙壁	-15309
情人节	-15310
八九	-15311
关注的	-15312
履历	-15313
罕见	-15314
一本书	-15315
给了我	-15316
学过	-15317
无常	-15318
我朋友	-15319
可行性	-15320
带头人	-15321
瓦斯	-15322
电解	-15323
徘徊	-15324
非凡	-15325
电竞	-15326
金庸	-15327
▁移动	-15328
亚热带	-15329
随手	-15330
课外	-15331
包包	-15332
找你	-15333
末日	-15334
退款	-15335
只剩	-15336
▁一种	-15337
▁场	-15338
等内容	-15339
▁遇到	-15340
南非	-15341
寺院	-15342
你以为	-15343
不至于	-15344
等领域	-15345
失常	-15346
▁狗	-15347
改动	-15348
第一章	-15349
他为	-15350
青团	-15351
单反	-15352
不是什么	-15353
还不能	-15354
个村民小组	-15355
手枪	-15356
汉子	-15357
北上	-15358
经济林果	-15359
计时	-15360
优秀教师	-15361
科研成果	-15362
不长	-15363
心得	-15364
拆除	-15365
lor	-15366
平装	-15367
量大	-15368
的情绪	-15369
就好像	-15370
掌握了	-15371
局势	-15372
日月	-15373
出没	-15374
每一位	-15375
是哪个	-15376
照相	-15377
力量的	-15378
工委	-15379
一带一路	-15380
的太	-15381
人次	-15382
好几个	-15383
人意	-15384
制止	-15385
月薪	-15386
角膜	-15387
初学者	-15388
就医	-15389
一模	-15390
地去	-15391
MAC	-15392
▁编辑	-15393
更重要的是	-15394
极少	-15395
带孩子	-15396
面目	-15397
传导	-15398
Wi	-15399
有意义	-15400
的事儿	-15401
▁古代	-15402
前行	-15403
发声	-15404
▁他是	-15405
▁原因	-15406
手续费	-15407
写成	-15408
顺德	-15409
文学家	-15410
制导	-15411
侧重	-15412
政策的	-15413
支架	-15414
烟草	-15415
舅舅	-15416
107	-15417
很开心	-15418
喷雾	-15419
祝您	-15420
写得	-15421
祖父	-15422
停车场	-15423
不光	-15424
商会	-15425
多大的	-15426
找他	-15427
洋葱	-15428
face	-15429
不加	-15430
网线	-15431
甜的	-15432
ray	-15433
函数的	-15434
▁IT	-15435
evel	-15436
译文	-15437
作品中	-15438
如果我	-15439
分化	-15440
自带的	-15441
范围内的	-15442
叶酸	-15443
清晰的	-15444
真菌	-15445
▁台湾	-15446
、1	-15447
机床	-15448
▁辛	-15449
144	-15450
母乳喂养	-15451
勇于	-15452
需要在	-15453
小狗	-15454
这种事情	-15455
向他	-15456
格外	-15457
右上	-15458
疯了	-15459
12-	-15460
▁立	-15461
光辉	-15462
▁AN	-15463
照射	-15464
▁考试	-15465
压根	-15466
▁但在	-15467
意识的	-15468
▁360	-15469
绝对不会	-15470
很棒	-15471
厉害的	-15472
头条	-15473
▁还有就是	-15474
同理	-15475
简约	-15476
昏迷	-15477
节课	-15478
▁本章	-15479
▁销售	-15480
开会	-15481
污染物	-15482
认为自己	-15483
主干	-15484
叠加	-15485
这几年	-15486
间隙	-15487
UP	-15488
血清	-15489
日出生于	-15490
▁1987	-15491
涡轮	-15492
相册	-15493
▁案例	-15494
号召	-15495
想学	-15496
救了	-15497
▁我喜欢	-15498
不惜	-15499
琉璃	-15500
:13	-15501
的伤害	-15502
打得	-15503
降温	-15504
ache	-15505
王爷	-15506
▁最高	-15507
▁河南	-15508
▁主要是	-15509
四五	-15510
安抚	-15511
常态	-15512
一架	-15513
领导下	-15514
比较少	-15515
资产管理	-15516
喝的	-15517
cs	-15518
上过	-15519
博览会	-15520
为宜	-15521
▁AM	-15522
比自己	-15523
洗衣机	-15524
下半	-15525
艺术品	-15526
投稿	-15527
芒果	-15528
条形码	-15529
写过	-15530
无量	-15531
解题	-15532
伊朗	-15533
捐款	-15534
筷子	-15535
你的情况	-15536
格拉	-15537
巡视	-15538
牌的	-15539
低价	-15540
审理	-15541
亲子	-15542
布尔	-15543
▁卖	-15544
▁后面	-15545
滤镜	-15546
在该	-15547
尽头	-15548
高质量	-15549
浓缩	-15550
点燃	-15551
运河	-15552
农林	-15553
出头	-15554
就买	-15555
突变	-15556
风俗	-15557
▁06	-15558
的症状	-15559
下图	-15560
▁死亡	-15561
你用	-15562
来着	-15563
▁45	-15564
的一段	-15565
的分析	-15566
奇妙	-15567
▁理	-15568
亲手	-15569
的死	-15570
枸杞	-15571
得罪	-15572
读物	-15573
之后就	-15574
不详	-15575
懵逼	-15576
不准确	-15577
▁翻	-15578
变频	-15579
课文	-15580
也许是	-15581
交办的	-15582
陈代谢	-15583
▁所以说	-15584
实在不行	-15585
enter	-15586
优异	-15587
的压力	-15588
真情	-15589
技术与	-15590
全职	-15591
选了	-15592
在没有	-15593
杭州市	-15594
▁嘉	-15595
交友	-15596
晚餐	-15597
子弟	-15598
无缘	-15599
营运	-15600
lish	-15601
ther	-15602
乳汁	-15603
排骨	-15604
的综合	-15605
不予	-15606
贯彻落实	-15607
重要参数	-15608
京城	-15609
务实	-15610
坏事	-15611
推崇	-15612
▁[18]	-15613
到哪里	-15614
就诊	-15615
大概就是	-15616
▁身	-15617
________________	-15618
原版	-15619
我开始	-15620
当了	-15621
new	-15622
,50	-15623
▁物理	-15624
▁公元	-15625
类专业	-15626
细胞的	-15627
很累	-15628
状的	-15629
解决方法	-15630
▁预	-15631
显现	-15632
什么体验	-15633
先去	-15634
打扫	-15635
高尚	-15636
▁建议你	-15637
战争的	-15638
专区	-15639
小人	-15640
▁有一次	-15641
总投资	-15642
红十字	-15643
企业文化	-15644
,"	-15645
只能是	-15646
▁编剧	-15647
中枢	-15648
全局	-15649
幸好	-15650
组队	-15651
时间是	-15652
独一无	-15653
这个行业	-15654
也是个	-15655
是不可能	-15656
▁如此	-15657
为国家	-15658
而行	-15659
▁just	-15660
不停的	-15661
的例子	-15662
▁我就是	-15663
▁诺基亚	-15664
原件	-15665
下滑	-15666
机构和	-15667
从容	-15668
▁New	-15669
,2005	-15670
▁̅	-15671
匿了	-15672
西门	-15673
倒霉	-15674
军训	-15675
▁好的	-15676
不绝	-15677
内裤	-15678
麻辣	-15679
_(	-15680
光芒	-15681
的时候会	-15682
向后	-15683
流血	-15684
精髓	-15685
FB	-15686
江市	-15687
所作	-15688
开除	-15689
中秋	-15690
亦凡	-15691
正文	-15692
万人次	-15693
说白了	-15694
▁相比	-15695
不要用	-15696
退了	-15697
太大了	-15698
习性	-15699
永不	-15700
试探	-15701
很快就	-15702
杂交	-15703
标的	-15704
过着	-15705
只要有	-15706
副秘书长	-15707
经济增长	-15708
来电	-15709
顶部	-15710
睡着了	-15711
标配	-15712
萎缩	-15713
▁宝鸡	-15714
可以使	-15715
说唱	-15716
语言的	-15717
大招	-15718
期徒刑	-15719
切的	-15720
▁Go	-15721
体系的	-15722
村的	-15723
为目的	-15724
▁表	-15725
嗓子	-15726
无不	-15727
效果的	-15728
归于	-15729
文体	-15730
戒烟	-15731
php	-15732
有没有什么	-15733
十一五	-15734
单个	-15735
只看	-15736
白金	-15737
连环	-15738
▁玩家	-15739
It	-15740
▁吕	-15741
上说	-15742
▁永远	-15743
的政治	-15744
1981	-15745
宫殿	-15746
所欲	-15747
雷斯	-15748
▁两人	-15749
对人体	-15750
CCTV	-15751
铁道	-15752
car	-15753
不计	-15754
感性	-15755
独具	-15756
铝合金	-15757
神秘的	-15758
一碗	-15759
备胎	-15760
弹簧	-15761
现在在	-15762
科比	-15763
-100	-15764
oud	-15765
代数	-15766
之神	-15767
廉价	-15768
▁1.5	-15769
au	-15770
ino	-15771
ited	-15772
▁阅读	-15773
他想	-15774
黄疸	-15775
终生	-15776
有不少	-15777
愈合	-15778
▁另	-15779
地名	-15780
是什么样	-15781
拦截	-15782
机理	-15783
米尔	-15784
矿山	-15785
内容由	-15786
irectX	-15787
制服	-15788
抒情	-15789
想象的	-15790
病原	-15791
尘埃	-15792
向东	-15793
紧凑	-15794
旗下的	-15795
大学出版社	-15796
你不是	-15797
足够了	-15798
有很大的	-15799
就当	-15800
选为	-15801
▁[3	-15802
万能	-15803
—200	-15804
摄像机	-15805
▁提供	-15806
▁补充	-15807
到自己	-15808
no	-15809
急需	-15810
樱桃	-15811
进去了	-15812
总公司	-15813
称赞	-15814
芬兰	-15815
网通	-15816
骂我	-15817
▁邓	-15818
料酒	-15819
都是我	-15820
▁距离	-15821
活下去	-15822
会和	-15823
这一次	-15824
中海	-15825
保证了	-15826
他被	-15827
坚实	-15828
实名	-15829
徐州	-15830
的一家	-15831
拉伸	-15832
这是一种	-15833
飞的	-15834
心理咨询师	-15835
点什么	-15836
局副局长	-15837
实况	-15838
手持	-15839
大为	-15840
在自己的	-15841
▁good	-15842
SA	-15843
右下	-15844
向外	-15845
抗菌	-15846
水浒	-15847
会引起	-15848
的美好	-15849
蚊子	-15850
-60	-15851
折射	-15852
,2011	-15853
不便	-15854
男神	-15855
多长时间	-15856
3。	-15857
京都	-15858
惊人	-15859
纪念馆	-15860
oup	-15861
国际贸易	-15862
系列产品	-15863
您可以	-15864
DO	-15865
▁不可以	-15866
层层	-15867
▁可以说	-15868
全能	-15869
ram	-15870
振兴	-15871
的反	-15872
纯属	-15873
▁结婚	-15874
复议	-15875
刺激性	-15876
性情	-15877
机车	-15878
▁青春	-15879
精神文明	-15880
广电	-15881
秒杀	-15882
hotoshop	-15883
萃取	-15884
arl	-15885
没有问题	-15886
火爆	-15887
全国联保	-15888
请采纳	-15889
开封	-15890
我真	-15891
不要吃	-15892
”!	-15893
辞典	-15894
XXX	-15895
惯性	-15896
▁主持	-15897
风景名胜	-15898
想看	-15899
卧槽	-15900
两个人的	-15901
今晚	-15902
技术服务	-15903
企鹅	-15904
行货	-15905
装扮	-15906
气血	-15907
118	-15908
届人民代表大会	-15909
跑道	-15910
30]	-15911
重度	-15912
▁信息	-15913
第三章	-15914
▁University	-15915
ISBN	-15916
不打	-15917
共识	-15918
自由的	-15919
活塞	-15920
空的	-15921
一直没有	-15922
评测	-15923
访谈	-15924
之后再	-15925
电容	-15926
亚太	-15927
墙上	-15928
慕容	-15929
▁老年	-15930
麻木	-15931
佛陀	-15932
脑子里	-15933
是与	-15934
构筑	-15935
化身	-15936
受过	-15937
鸽子	-15938
相关部门	-15939
发觉	-15940
较强	-15941
一如	-15942
声乐	-15943
都很好	-15944
长大的	-15945
哺乳期	-15946
▁然	-15947
事迹	-15948
不是因为	-15949
无名	-15950
▁一只	-15951
时而	-15952
▁广告	-15953
万事	-15954
▁亦	-15955
搞好	-15956
马云	-15957
天鹅	-15958
作息	-15959
ene	-15960
▁Ph	-15961
的技能	-15962
脸部	-15963
传染病	-15964
做的事	-15965
book	-15966
春晚	-15967
粉末	-15968
禁用	-15969
▁毕业	-15970
的个人	-15971
苦难	-15972
▁第一个	-15973
你和	-15974
爱尔兰	-15975
抉择	-15976
看病	-15977
并且在	-15978
一刀	-15979
底盘	-15980
科员	-15981
的比赛	-15982
误区	-15983
▁重量	-15984
诱导	-15985
每一天	-15986
目标是	-15987
倒闭	-15988
奥林匹克	-15989
三个人	-15990
胃口	-15991
现在我	-15992
华侨	-15993
只得	-15994
有用的	-15995
年全国	-15996
▁220	-15997
应聘	-15998
最开始	-15999
巡回	-16000
七个	-16001
他已经	-16002
必不可	-16003
万余	-16004
虚荣	-16005
edia	-16006
下垂	-16007
自然而	-16008
财政部	-16009
切记	-16010
虚弱	-16011
各方	-16012
素描	-16013
摸索	-16014
比他	-16015
抵制	-16016
查阅	-16017
-&	-16018
氯化	-16019
流转	-16020
强劲	-16021
编著	-16022
有人在	-16023
高地	-16024
▁除此之外	-16025
▁萨	-16026
知名的	-16027
克里	-16028
演示	-16029
不能说	-16030
用这个	-16031
中和	-16032
彰显	-16033
你就可以	-16034
透视	-16035
违法行为	-16036
▁Be	-16037
精油	-16038
有点像	-16039
但是没有	-16040
房贷	-16041
hem	-16042
4.4	-16043
▁酒	-16044
放了	-16045
本的	-16046
组织部	-16047
艰辛	-16048
跳槽	-16049
个行政村	-16050
农民工	-16051
教学质量	-16052
xxx	-16053
▁Ed	-16054
酰胺	-16055
社会保险	-16056
缺钙	-16057
▁第十一章	-16058
洁净	-16059
问的	-16060
0’0	-16061
▁特色	-16062
-0.	-16063
ask	-16064
Qu	-16065
县人	-16066
ipad	-16067
通知书	-16068
海盗	-16069
学名	-16070
奢侈品	-16071
上报	-16072
用书	-16073
新农村	-16074
过一次	-16075
人们对	-16076
调制	-16077
驻地	-16078
mi	-16079
给点	-16080
的准备	-16081
的程序	-16082
大笑	-16083
女装	-16084
各部门	-16085
的女子	-16086
的空	-16087
众多的	-16088
aut	-16089
居多	-16090
▁绝	-16091
波斯	-16092
成一个	-16093
中东	-16094
数量的	-16095
▁外形	-16096
好不容易	-16097
▁灵	-16098
根据自己的	-16099
谐音	-16100
被封	-16101
较长	-16102
不考虑	-16103
就在于	-16104
我给你	-16105
方向的	-16106
区政府	-16107
而死	-16108
研究室	-16109
战后	-16110
抗拒	-16111
▁杰	-16112
DD	-16113
药的	-16114
将他	-16115
▁威	-16116
好坏	-16117
撕逼	-16118
爆破	-16119
▁女性	-16120
寒冷	-16121
义的	-16122
日志	-16123
育儿	-16124
▁柳	-16125
是和	-16126
删掉	-16127
进制	-16128
▁显示	-16129
比方	-16130
代入	-16131
无脑	-16132
▁无论是	-16133
首位	-16134
:25	-16135
在香港	-16136
我来说	-16137
无人机	-16138
时间去	-16139
带了	-16140
盆地	-16141
5/	-16142
uy	-16143
交汇	-16144
的马	-16145
飞翔	-16146
怎么解决	-16147
无论如何	-16148
首付	-16149
火花	-16150
将是	-16151
世界里	-16152
产出	-16153
召集	-16154
清晨	-16155
的距离	-16156
▁这是什么	-16157
迷失	-16158
组织和	-16159
汇集	-16160
静电	-16161
死人	-16162
整洁	-16163
是天	-16164
满意的	-16165
怎么样了	-16166
挪威	-16167
没收	-16168
致富	-16169
对他们	-16170
盛世	-16171
释迦	-16172
族自治县	-16173
护卫	-16174
,100	-16175
中国科学院	-16176
多做	-16177
性命	-16178
霹雳	-16179
用户提供	-16180
保费	-16181
文化和	-16182
剖析	-16183
男演员	-16184
外出务工	-16185
足球运动员	-16186
你又	-16187
好象	-16188
世界观	-16189
有色	-16190
丰田	-16191
:)	-16192
眼界	-16193
ABC	-16194
pc	-16195
上司	-16196
颈部	-16197
首个	-16198
想吃	-16199
点到	-16200
earch	-16201
戴尔	-16202
下课	-16203
0.4	-16204
ush	-16205
可以和	-16206
还是没有	-16207
时长	-16208
的数量	-16209
俩人	-16210
请假	-16211
鲜艳	-16212
做的事情	-16213
特拉	-16214
不息	-16215
精神的	-16216
爱上了	-16217
构成的	-16218
出众	-16219
这篇文章	-16220
哭闹	-16221
▁mg	-16222
还是不	-16223
▁微软	-16224
地方的	-16225
牵引	-16226
风流	-16227
哈哈哈哈哈	-16228
▁喝	-16229
长期的	-16230
▁了	-16231
冲刺	-16232
上来说	-16233
孔雀	-16234
防腐	-16235
日常工作	-16236
之谜	-16237
自知	-16238
文明的	-16239
武汉市	-16240
高尔夫	-16241
周转	-16242
日前	-16243
Na	-16244
西红柿	-16245
BL	-16246
甲级	-16247
研讨会	-16248
并通过	-16249
dota	-16250
上发表	-16251
的这个	-16252
公用	-16253
uan	-16254
血液循环	-16255
比较容易	-16256
拿去	-16257
新世纪	-16258
职业学院	-16259
互助	-16260
升学	-16261
日晚	-16262
应当在	-16263
fa	-16264
▁毒	-16265
单车	-16266
按下	-16267
秋天	-16268
▁果	-16269
客机	-16270
玩儿	-16271
OST	-16272
不孕	-16273
的可	-16274
惠普	-16275
赶上	-16276
天内	-16277
站立	-16278
千金	-16279
袜子	-16280
动物的	-16281
表面上	-16282
完备	-16283
淮南	-16284
数据线	-16285
错过了	-16286
我建议	-16287
脸的	-16288
地步	-16289
0.6	-16290
代表着	-16291
鲤鱼	-16292
tx	-16293
妇产科	-16294
几家	-16295
感情的	-16296
萝莉	-16297
货源	-16298
err	-16299
他把	-16300
我该	-16301
规程	-16302
我们会	-16303
瓷器	-16304
▁那是	-16305
回答问题	-16306
正规的	-16307
了一大	-16308
集团军	-16309
不错的选择	-16310
闪烁	-16311
招募	-16312
火了	-16313
ware	-16314
等同	-16315
小时内	-16316
来个	-16317
▁袁	-16318
▁母亲	-16319
CDMA	-16320
奶油	-16321
rain	-16322
多喝	-16323
需求的	-16324
回族	-16325
皮的	-16326
科的	-16327
SUV	-16328
庄子	-16329
西路	-16330
身子	-16331
▁看着	-16332
对我们	-16333
▁集	-16334
娘娘	-16335
代理人	-16336
9000	-16337
国籍	-16338
地里	-16339
性好	-16340
星辰	-16341
的四	-16342
热心	-16343
等一系列	-16344
水温	-16345
乒乓球	-16346
屏障	-16347
是世界	-16348
▁做法	-16349
.(	-16350
旅程	-16351
钟情	-16352
科研项目	-16353
的自己	-16354
/100	-16355
公约	-16356
月下	-16357
等因素	-16358
▁这个时候	-16359
宽松	-16360
网络的	-16361
同居	-16362
法和	-16363
设想	-16364
应该在	-16365
这都是	-16366
半个小时	-16367
只用	-16368
玩耍	-16369
瘦了	-16370
介石	-16371
表面的	-16372
自强	-16373
AKB	-16374
riend	-16375
吸引了	-16376
体贴	-16377
泉州	-16378
比亚迪	-16379
还是可以	-16380
星光	-16381
197	-16382
花纹	-16383
话费	-16384
求推荐	-16385
员的	-16386
土豪	-16387
工作经验	-16388
去哪	-16389
位移	-16390
很多东西	-16391
尖锐	-16392
宫外孕	-16393
理论的	-16394
抓紧	-16395
电工	-16396
过量	-16397
讲道理	-16398
▁全球	-16399
▁ps	-16400
发出的	-16401
脾胃	-16402
会变	-16403
工序	-16404
的道路	-16405
eter	-16406
的大部分	-16407
律师事务所	-16408
宋朝	-16409
eta	-16410
淘宝上	-16411
尔多	-16412
减少了	-16413
学分	-16414
▁资源	-16415
之于	-16416
控制在	-16417
家教	-16418
行列	-16419
文库	-16420
气和	-16421
骗人的	-16422
,2004	-16423
一言	-16424
公爵	-16425
管理者	-16426
人头	-16427
漫长	-16428
EV	-16429
▁好好	-16430
物联网	-16431
电荷	-16432
鳄鱼	-16433
岁的时候	-16434
会展	-16435
已经开始	-16436
音色	-16437
传来	-16438
伸手	-16439
一等	-16440
而易	-16441
软骨	-16442
117	-16443
▁河	-16444
入围	-16445
小众	-16446
神奇的	-16447
本科学历	-16448
山下	-16449
薄弱	-16450
探测器	-16451
建筑设计	-16452
中场	-16453
熟人	-16454
轻度	-16455
火烧	-16456
fd	-16457
诊所	-16458
能上	-16459
设置的	-16460
可以自己	-16461
怎么才能	-16462
房产证	-16463
基数	-16464
成功地	-16465
撤退	-16466
汉书	-16467
重叠	-16468
空气中	-16469
▁如果你是	-16470
调侃	-16471
▁这是我	-16472
科技成果	-16473
ars	-16474
东路	-16475
不推荐	-16476
的人的	-16477
还包括	-16478
冰冰	-16479
电子书	-16480
pa	-16481
▁质量	-16482
我一个人	-16483
毫无疑问	-16484
/(	-16485
那么多人	-16486
平台上	-16487
中西医结合	-16488
受了	-16489
的人民	-16490
/12	-16491
▁1980	-16492
因为有	-16493
改建	-16494
中南	-16495
净水	-16496
一些人	-16497
穿透	-16498
和文化	-16499
学前	-16500
还有点	-16501
忧郁	-16502
蓝屏	-16503
鼻涕	-16504
十二五	-16505
教科书	-16506
▁2.2	-16507
医疗卫生	-16508
自己的生活	-16509
tm	-16510
一站	-16511
你是否	-16512
不知不觉	-16513
圣人	-16514
最美	-16515
马德里	-16516
▁喜	-16517
3.7	-16518
不再是	-16519
自己对	-16520
蒋介石	-16521
▁也就是	-16522
▁iOS	-16523
▁萧	-16524
原声	-16525
易懂	-16526
掩护	-16527
去哪里	-16528
叫他	-16529
正直	-16530
的高级	-16531
渐进	-16532
盐水	-16533
金曲	-16534
收到了	-16535
因为没有	-16536
▁want	-16537
,「	-16538
庞大	-16539
水域	-16540
虚伪	-16541
游戏里	-16542
理性的	-16543
PH	-16544
莱斯	-16545
VIDIA	-16546
▁[19]	-16547
香菇	-16548
但要	-16549
你想要	-16550
▁习题	-16551
Pa	-16552
▁如题	-16553
痛苦的	-16554
区块链	-16555
试试看	-16556
▁]	-16557
上床	-16558
上百	-16559
他很	-16560
丛林	-16561
认识了	-16562
周六	-16563
的理念	-16564
东汉	-16565
阴暗	-16566
生产和	-16567
IL	-16568
▁耳	-16569
宰相	-16570
收敛	-16571
倍的	-16572
这话	-16573
方可	-16574
780	-16575
负载	-16576
机油	-16577
▁网站	-16578
聚合	-16579
全国各地	-16580
排便	-16581
花瓣	-16582
而且在	-16583
是不一样的	-16584
放出	-16585
雄性	-16586
▁我记得	-16587
医疗器械	-16588
搬砖	-16589
Google	-16590
延安	-16591
有那么	-16592
争执	-16593
午餐	-16594
悠悠	-16595
之歌	-16596
县级以上人民政府	-16597
补钙	-16598
随地	-16599
打开了	-16600
odel	-16601
▁难	-16602
开办	-16603
给你们	-16604
说完	-16605
早期的	-16606
他却	-16607
邮电	-16608
慢慢地	-16609
暗中	-16610
社长	-16611
ATI	-16612
年参加	-16613
改名为	-16614
▁唉	-16615
松弛	-16616
门窗	-16617
才算	-16618
望远	-16619
逮捕	-16620
▁生命	-16621
两人的	-16622
著作权	-16623
遥远	-16624
专业化	-16625
但它	-16626
为好	-16627
▁07	-16628
共建	-16629
台风	-16630
▁室内	-16631
越野	-16632
很有可能	-16633
注意的是	-16634
在他们	-16635
固件	-16636
olor	-16637
小康	-16638
配偶	-16639
▁尼	-16640
寄托	-16641
愧疚	-16642
GE	-16643
11-	-16644
的法律	-16645
▁自从	-16646
答应了	-16647
实力的	-16648
▁System	-16649
事件的	-16650
杂质	-16651
快感	-16652
翼翼	-16653
马丁	-16654
底的	-16655
教研室	-16656
mv	-16657
主营	-16658
向你	-16659
眼中的	-16660
八个	-16661
反过来	-16662
乌克兰	-16663
直立	-16664
约占	-16665
固然	-16666
内脏	-16667
旗帜	-16668
霸气	-16669
天龙	-16670
不顺	-16671
抢劫	-16672
结构和	-16673
自己和	-16674
蓬勃	-16675
PSP	-16676
内部的	-16677
已在	-16678
我心里	-16679
整机	-16680
的图	-16681
▁bl	-16682
的一条	-16683
想让	-16684
巨头	-16685
填报	-16686
▁你会	-16687
之谦	-16688
到他	-16689
吃不	-16690
的诗	-16691
add	-16692
世纪初	-16693
要从	-16694
的地位	-16695
成为中国	-16696
宁市	-16697
放进	-16698
火炮	-16699
聪明的	-16700
▁教	-16701
阻挡	-16702
还是不错的	-16703
这儿	-16704
高频	-16705
宝贵	-16706
好的话	-16707
我自己的	-16708
无机	-16709
都快	-16710
▁里	-16711
名片	-16712
不会被	-16713
对吧	-16714
翻身	-16715
泄露	-16716
三十年	-16717
网上的	-16718
▁印	-16719
不合理	-16720
John	-16721
我却	-16722
ole	-16723
眼部	-16724
的投资	-16725
纳税人	-16726
原装	-16727
环境和	-16728
▁cl	-16729
战车	-16730
而上	-16731
维斯	-16732
▁给你	-16733
几年的	-16734
的制作	-16735
过一个	-16736
每一个人	-16737
美化	-16738
补习	-16739
常有	-16740
排气	-16741
衡水	-16742
语的	-16743
我怕	-16744
就是说	-16745
吃亏	-16746
总分	-16747
RA	-16748
螺丝	-16749
5.6	-16750
定量	-16751
保健品	-16752
内侧	-16753
又说	-16754
把钱	-16755
你别	-16756
、4	-16757
撞击	-16758
的控制	-16759
都挺	-16760
问道	-16761
方向盘	-16762
ener	-16763
都将	-16764
其自然	-16765
怀里	-16766
感触	-16767
▁)。	-16768
▁君	-16769
并为	-16770
最难	-16771
构图	-16772
▁传统	-16773
可怕的	-16774
aker	-16775
小哥	-16776
我被	-16777
形体	-16778
▁好了	-16779
受孕	-16780
皮质	-16781
50.	-16782
最初的	-16783
web	-16784
才会有	-16785
都是很	-16786
正月	-16787
所周	-16788
其它的	-16789
非得	-16790
普查	-16791
就会被	-16792
乔丹	-16793
网购	-16794
比分	-16795
310	-16796
都属于	-16797
帐户	-16798
迎来	-16799
时间长	-16800
历时	-16801
粘膜	-16802
不许	-16803
毅力	-16804
弗兰	-16805
以后再	-16806
体育馆	-16807
丽江	-16808
指导和	-16809
发到	-16810
▁2.1	-16811
人均耕地	-16812
受精	-16813
▁保险	-16814
糖果	-16815
地球上	-16816
暴躁	-16817
较多的	-16818
甲方	-16819
请在	-16820
▁有关	-16821
宣称	-16822
激烈的	-16823
芯片组	-16824
▁善	-16825
没有必要	-16826
十多	-16827
考完	-16828
ti	-16829
都可	-16830
什么原因	-16831
▁索	-16832
▁1.1	-16833
▁has	-16834
毗邻	-16835
能做到	-16836
,2012	-16837
罪犯	-16838
动感	-16839
的患者	-16840
erson	-16841
して	-16842
Tr	-16843
议论	-16844
徐坤	-16845
▁关键	-16846
不得已	-16847
变焦	-16848
国学	-16849
EI	-16850
碾压	-16851
鼻炎	-16852
拥有的	-16853
在对	-16854
躺着	-16855
以来的	-16856
宣传部	-16857
应该如何	-16858
设置了	-16859
这只是	-16860
一字	-16861
北极	-16862
是说	-16863
ARM	-16864
番外	-16865
未成年	-16866
体会到	-16867
是他的	-16868
很大程度上	-16869
mon	-16870
失败了	-16871
KG	-16872
小了	-16873
打我	-16874
渤海	-16875
四海	-16876
在这一	-16877
Linux	-16878
近似	-16879
呈现出	-16880
▁USB	-16881
eople	-16882
参保	-16883
▁We	-16884
许多人	-16885
哮喘	-16886
医学生	-16887
有这个	-16888
惊人的	-16889
都差不多	-16890
冻结	-16891
千玺	-16892
▁既	-16893
宣言	-16894
▁我们的	-16895
本文	-16896
1.9	-16897
▁绝对	-16898
年薪	-16899
不低于	-16900
至关	-16901
呜呜	-16902
挤压	-16903
矿业	-16904
3～	-16905
说清楚	-16906
平平	-16907
的自然	-16908
科夫	-16909
教育学	-16910
击杀	-16911
协定	-16912
就来	-16913
探究	-16914
二十五	-16915
请各位	-16916
他俩	-16917
受体	-16918
▁临床	-16919
求婚	-16920
班上	-16921
是一种什么样的	-16922
是全	-16923
▁路易斯	-16924
Microsoft	-16925
实际的	-16926
测验	-16927
阴性	-16928
111	-16929
在某	-16930
魔力	-16931
重装系统	-16932
中含有	-16933
肖战	-16934
▁输入	-16935
能量的	-16936
参考文献	-16937
几万	-16938
IX	-16939
房的	-16940
综述	-16941
羊毛	-16942
:14	-16943
。2019	-16944
过来了	-16945
流入	-16946
中国人民解放军	-16947
刺史	-16948
友善	-16949
圈的	-16950
▁岁	-16951
流体	-16952
之城	-16953
辩证	-16954
泪水	-16955
付出的	-16956
▁义	-16957
歌声	-16958
牢固	-16959
着眼	-16960
是正常的	-16961
整数	-16962
了一份	-16963
背景下	-16964
我也没	-16965
▁苦	-16966
屋里	-16967
99.	-16968
写下	-16969
巴基	-16970
两个字	-16971
工程的	-16972
翻新	-16973
甲基	-16974
等功能	-16975
副市长	-16976
雇佣	-16977
▁无法	-16978
Br	-16979
税率	-16980
位居	-16981
各式	-16982
能和	-16983
至此	-16984
迎合	-16985
他还是	-16986
0%	-16987
外加	-16988
但不是	-16989
自己不	-16990
TH	-16991
大片	-16992
器和	-16993
▁安徽省	-16994
做为	-16995
门前	-16996
12,	-16997
财经大学	-16998
迷惑	-16999
陈述	-17000
目标的	-17001
植被	-17002
给它	-17003
▁动画	-17004
购买的	-17005
却发现	-17006
最强的	-17007
,。	-17008
弱势	-17009
一分钟	-17010
品尝	-17011
能玩	-17012
就是把	-17013
是对的	-17014
1978	-17015
116	-17016
▁概述	-17017
鲜明的	-17018
ield	-17019
备受	-17020
迷宫	-17021
拍了	-17022
oon	-17023
应有的	-17024
拿到了	-17025
▁DVD	-17026
一点也不	-17027
县的	-17028
▁怕	-17029
街道办事处	-17030
剧的	-17031
抛开	-17032
▁用于	-17033
over	-17034
可能会有	-17035
懂了	-17036
光源	-17037
你的人	-17038
宝玉	-17039
西汉	-17040
间谍	-17041
跑车	-17042
网络游戏	-17043
ii	-17044
亚历	-17045
招式	-17046
▁尤其	-17047
要先	-17048
在当时	-17049
雍正	-17050
▁皮肤	-17051
如果真的	-17052
去打	-17053
官司	-17054
简易	-17055
薛之谦	-17056
乾坤	-17057
教养	-17058
传入	-17059
光环	-17060
有天	-17061
次于	-17062
落下	-17063
▁佛山	-17064
保研	-17065
沉重	-17066
填补	-17067
粪便	-17068
经历的	-17069
人造	-17070
!(	-17071
1(	-17072
变质	-17073
打完	-17074
水土	-17075
硬币	-17076
▁全书	-17077
是日本	-17078
无缝	-17079
听众	-17080
后宫	-17081
有其	-17082
几个小时	-17083
的卡	-17084
最起码	-17085
腹腔	-17086
山村	-17087
窒息	-17088
是否可以	-17089
怀着	-17090
▁民	-17091
不和	-17092
卑微	-17093
悬崖	-17094
▁我一直	-17095
后来我	-17096
▁–	-17097
同样是	-17098
▁Comp	-17099
典雅	-17100
在知乎	-17101
的最高	-17102
倒数	-17103
公会	-17104
oth	-17105
普陀	-17106
为难	-17107
关掉	-17108
较差	-17109
改变的	-17110
不放	-17111
品德	-17112
成一	-17113
演戏	-17114
刷题	-17115
短片	-17116
个赞	-17117
周五	-17118
地段	-17119
底蕴	-17120
在国外	-17121
清净	-17122
使劲	-17123
饭后	-17124
▁腾讯	-17125
祈祷	-17126
接触到	-17127
她还	-17128
进军	-17129
175	-17130
;3	-17131
史诗	-17132
发表于	-17133
会用	-17134
票据	-17135
:45	-17136
的电话	-17137
▁他们的	-17138
好一些	-17139
互补	-17140
▁China	-17141
薄膜	-17142
随心	-17143
的本质	-17144
医疗机构	-17145
并用	-17146
正宗	-17147
排泄	-17148
候选人	-17149
因为我们	-17150
名气	-17151
罗汉	-17152
巴掌	-17153
▁作词	-17154
想象力	-17155
煎饼	-17156
证明了	-17157
fb	-17158
▁麦	-17159
煤层	-17160
了一段时间	-17161
......)	-17162
yle	-17163
不回	-17164
则为	-17165
TOP	-17166
最大化	-17167
*)	-17168
其为	-17169
▁兄弟	-17170
疯狂的	-17171
数据分析	-17172
服装设计	-17173
介绍一下	-17174
EE	-17175
▁崔	-17176
妖精	-17177
哈佛	-17178
活得	-17179
70%	-17180
催眠	-17181
后排	-17182
理发	-17183
伦萨	-17184
▁教学	-17185
一口气	-17186
代理商	-17187
儿子的	-17188
以为自己	-17189
依然是	-17190
的灵魂	-17191
就该	-17192
▁十二	-17193
▁大多数	-17194
项目管理	-17195
字数	-17196
▁要么	-17197
汉化	-17198
落叶	-17199
pm	-17200
lon	-17201
绿色的	-17202
锂电池	-17203
不留	-17204
▁个人觉得	-17205
真的会	-17206
供奉	-17207
沸腾	-17208
▁不久	-17209
不停地	-17210
都不要	-17211
化疗	-17212
道士	-17213
▁正在	-17214
▁重点	-17215
第四章	-17216
编排	-17217
▁儿童	-17218
收益率	-17219
展望	-17220
对象的	-17221
▁鲜	-17222
但对	-17223
壁画	-17224
▁1983	-17225
清澈	-17226
ala	-17227
后才	-17228
断奶	-17229
极力	-17230
的国际	-17231
年平均气温	-17232
衣柜	-17233
▁120	-17234
▁潘	-17235
犯了	-17236
出问题	-17237
人际关系	-17238
驱动程序	-17239
FM	-17240
崇尚	-17241
查查	-17242
也应该	-17243
三是	-17244
深远	-17245
考前	-17246
蓝天	-17247
我说的	-17248
哭着	-17249
花椒	-17250
谣言	-17251
配上	-17252
▁作曲	-17253
买什么	-17254
和非	-17255
昵称	-17256
用处	-17257
并发症	-17258
药物治疗	-17259
FR	-17260
▁茶	-17261
5.3	-17262
了一张	-17263
了一批	-17264
多元化	-17265
rive	-17266
普鲁	-17267
YY	-17268
者为	-17269
echn	-17270
▁兰	-17271
双胞胎	-17272
伯爵	-17273
▁智能	-17274
女生的	-17275
心地	-17276
也是这样	-17277
伤了	-17278
回路	-17279
LAN	-17280
过多的	-17281
▁属	-17282
前身	-17283
在你的	-17284
的政策	-17285
不是很好	-17286
▁否则	-17287
文明单位	-17288
穿了	-17289
iy	-17290
典范	-17291
即位	-17292
收支	-17293
▁上映	-17294
聊天记录	-17295
哪怕是	-17296
▁农村	-17297
停产	-17298
幼虫	-17299
在大学	-17300
月入	-17301
方便的	-17302
时不时	-17303
影音	-17304
情趣	-17305
五代	-17306
漫威	-17307
的人口	-17308
游玩	-17309
晴天	-17310
年和	-17311
矫情	-17312
重修	-17313
服务于	-17314
两个小时	-17315
双子	-17316
藏书	-17317
心了	-17318
6.2	-17319
戴着	-17320
近乎	-17321
表现在	-17322
可以到	-17323
可以看看	-17324
▁内置	-17325
城乡建设	-17326
顺着	-17327
比利时	-17328
▁户	-17329
哪天	-17330
胜负	-17331
追随	-17332
可以有	-17333
计生	-17334
▁楼	-17335
在被	-17336
狩猎	-17337
贵人	-17338
▁获得	-17339
医务	-17340
救灾	-17341
填空	-17342
澄清	-17343
石化	-17344
走下去	-17345
糯米	-17346
IFI	-17347
求大神	-17348
▁百度百科	-17349
VI	-17350
组织开展	-17351
降价	-17352
188	-17353
如您	-17354
点开	-17355
既往	-17356
流感	-17357
Con	-17358
ause	-17359
阿里巴巴	-17360
丰富多彩	-17361
骨干教师	-17362
剥夺	-17363
按住	-17364
适中	-17365
▁物业	-17366
增进	-17367
始皇	-17368
里达	-17369
积极的	-17370
年由	-17371
披露	-17372
摇头	-17373
集的	-17374
(14	-17375
制定的	-17376
库里	-17377
战友	-17378
摆放	-17379
▁背景	-17380
可有	-17381
完全不	-17382
1100	-17383
路灯	-17384
ele	-17385
是不可能的	-17386
"&	-17387
note	-17388
杯子	-17389
外传	-17390
岛的	-17391
还用	-17392
适度	-17393
Gr	-17394
皆是	-17395
老龄	-17396
目前为止	-17397
每次都	-17398
▁about	-17399
不只是	-17400
查一下	-17401
下达	-17402
有你	-17403
但其	-17404
方能	-17405
心想	-17406
那儿	-17407
脑血管	-17408
▁政府	-17409
黄帝	-17410
▁大型	-17411
一间	-17412
克隆	-17413
财物	-17414
inal	-17415
仍旧	-17416
这种感觉	-17417
虚构	-17418
企业在	-17419
▁Intel	-17420
快餐	-17421
方法的	-17422
▁life	-17423
db	-17424
奶瓶	-17425
薄的	-17426
SCI	-17427
▁On	-17428
▁吉林省	-17429
万户	-17430
▁Or	-17431
一个好	-17432
Pr	-17433
东亚	-17434
血统	-17435
▁美术	-17436
想到的	-17437
的那些	-17438
见过的	-17439
曼联	-17440
▁qq	-17441
后半	-17442
学子	-17443
听到了	-17444
/6	-17445
故宫	-17446
田径	-17447
长篇	-17448
▁东方	-17449
不过我	-17450
对话框	-17451
nf	-17452
将要	-17453
的一半	-17454
益生	-17455
谈了	-17456
共青团	-17457
无故	-17458
草地	-17459
听不懂	-17460
真的太	-17461
之父	-17462
派人	-17463
粉色	-17464
街舞	-17465
▁王者	-17466
也太	-17467
还给	-17468
▁真正	-17469
体内的	-17470
经常会	-17471
olle	-17472
侵入	-17473
数为	-17474
他就是	-17475
一脚	-17476
ven	-17477
中国大陆	-17478
▁Java	-17479
呵护	-17480
我不能	-17481
要考虑	-17482
▁world	-17483
支队	-17484
试一下	-17485
独行	-17486
喜欢吃	-17487
上台	-17488
党政	-17489
才好	-17490
扯淡	-17491
播音	-17492
晚年	-17493
▁农业	-17494
之说	-17495
也称	-17496
^_	-17497
多篇	-17498
捆绑	-17499
喉咙	-17500
质量和	-17501
生姜	-17502
▁■	-17503
变种	-17504
推翻	-17505
必须的	-17506
一岁	-17507
就会出现	-17508
▁医学	-17509
两名	-17510
漂流	-17511
逆袭	-17512
营业厅	-17513
上部	-17514
165	-17515
orm	-17516
自我的	-17517
灌木	-17518
▁所在城市	-17519
ts	-17520
克劳	-17521
击中	-17522
32.	-17523
诚意	-17524
降落	-17525
小队	-17526
聚餐	-17527
的广告	-17528
短发	-17529
好运	-17530
手脚	-17531
也不算	-17532
在我国	-17533
正常人	-17534
所为	-17535
回答的	-17536
每隔	-17537
间断	-17538
青龙	-17539
便会	-17540
内存条	-17541
客栈	-17542
止痛	-17543
6.1	-17544
▁军	-17545
主频	-17546
妨碍	-17547
再也没有	-17548
房地产市场	-17549
陀螺	-17550
教学班	-17551
倾听	-17552
接壤	-17553
是否是	-17554
▁没什么	-17555
电线	-17556
调的	-17557
骨髓	-17558
▁1949	-17559
▁汪	-17560
最优	-17561
祖师	-17562
将自己	-17563
安稳	-17564
粗暴	-17565
积极性	-17566
江河	-17567
茫茫	-17568
▁前言	-17569
日元	-17570
的农户	-17571
要我	-17572
不利于	-17573
讲课	-17574
你好运	-17575
陌生的	-17576
叫什么名字	-17577
溶于	-17578
张力	-17579
大学学历	-17580
谈过	-17581
官兵	-17582
▁这类	-17583
圣地	-17584
木质	-17585
汇编	-17586
9)	-17587
积累了	-17588
字形	-17589
读过	-17590
每年的	-17591
乐坛	-17592
花花	-17593
颇有	-17594
▁请教	-17595
第一届	-17596
UC	-17597
并向	-17598
数千	-17599
设法	-17600
读完	-17601
▁正文	-17602
▁设置	-17603
体育场	-17604
力资源	-17605
又开始	-17606
首家	-17607
的办学	-17608
点和	-17609
小姑娘	-17610
记忆力	-17611
前去	-17612
搬迁	-17613
维茨	-17614
▁有了	-17615
▁看你	-17616
一味	-17617
待机	-17618
小女孩	-17619
被杀	-17620
作出了	-17621
舞台上	-17622
打包	-17623
利比亚	-17624
520	-17625
隐身	-17626
利斯	-17627
搞清楚	-17628
很长时间	-17629
▁笑	-17630
器具	-17631
没过	-17632
该怎么做	-17633
▁食	-17634
提炼	-17635
路军	-17636
隆重	-17637
龙门	-17638
)——	-17639
ser	-17640
My	-17641
长乐	-17642
霸道	-17643
ely	-17644
永远不会	-17645
墓地	-17646
傍晚	-17647
室的	-17648
▁鼠标	-17649
交朋友	-17650
仍然是	-17651
是什么时候	-17652
村镇	-17653
年增长	-17654
也不可能	-17655
▁显存	-17656
癫痫	-17657
▁获奖	-17658
危险的	-17659
披针	-17660
联动	-17661
永远是	-17662
设备和	-17663
坚持下去	-17664
黄昏	-17665
那句话	-17666
感人	-17667
▁跪求	-17668
▁好吧	-17669
有这么	-17670
信息公开	-17671
爱奇艺	-17672
者在	-17673
代表了	-17674
消费品	-17675
话题的优秀回答者	-17676
本性	-17677
▁性别	-17678
本条例	-17679
这个专业	-17680
昆仑	-17681
解压	-17682
的有效	-17683
房间里	-17684
干事	-17685
我曾经	-17686
加之	-17687
cb	-17688
山路	-17689
铁矿	-17690
宝藏	-17691
知己	-17692
请您	-17693
呼叫	-17694
∠)_	-17695
不是为了	-17696
麻痹	-17697
▁高级	-17698
不见了	-17699
充沛	-17700
古风	-17701
暴风	-17702
诉求	-17703
透气	-17704
大幅度	-17705
被认为是	-17706
SK	-17707
功底	-17708
应试	-17709
批复	-17710
小哥哥	-17711
收养	-17712
辜负	-17713
▁la	-17714
翰林	-17715
拥有移动电话	-17716
保鲜	-17717
是全国	-17718
以南	-17719
诱发	-17720
自己要	-17721
▁施	-17722
水产	-17723
高点	-17724
▁野	-17725
教育学院	-17726
毁了	-17727
每秒	-17728
轻重	-17729
自动识别	-17730
背诵	-17731
转弯	-17732
也因此	-17733
两部分	-17734
尽量不要	-17735
背包	-17736
雨量	-17737
▁Pr	-17738
省部级	-17739
ideo	-17740
兴趣爱好	-17741
美剧	-17742
ean	-17743
合作社	-17744
的主人	-17745
手术治疗	-17746
十分钟	-17747
所需要的	-17748
气球	-17749
分支机构	-17750
的真	-17751
洗干净	-17752
的努力	-17753
▁猪	-17754
好后	-17755
365	-17756
更多的人	-17757
并列	-17758
滥用	-17759
你认为	-17760
了一系列	-17761
专任	-17762
孝顺	-17763
董事会	-17764
于一体的	-17765
DJ	-17766
三层	-17767
国旗	-17768
郊区	-17769
mac	-17770
▁贾	-17771
之二	-17772
当局	-17773
和一些	-17774
犯罪的	-17775
▁例	-17776
▁活动	-17777
▁诗	-17778
何种	-17779
固执	-17780
她了	-17781
坐车	-17782
发誓	-17783
是不可	-17784
刑事责任	-17785
同仁	-17786
跟别人	-17787
倾诉	-17788
让您	-17789
对决	-17790
石器	-17791
我刚	-17792
挂牌	-17793
黑客	-17794
旗舰店	-17795
▁图书目录	-17796
病症	-17797
隐蔽	-17798
大豆	-17799
怎么办啊	-17800
单单	-17801
合计	-17802
摄取	-17803
不满意	-17804
大多是	-17805
load	-17806
巴士	-17807
亦有	-17808
拳击	-17809
音乐会	-17810
迪斯	-17811
大自然	-17812
树上	-17813
mol	-17814
》“	-17815
心机	-17816
开支	-17817
正能量	-17818
腰椎	-17819
资格证书	-17820
完颜	-17821
行事	-17822
处处长	-17823
就像是	-17824
的一年	-17825
外面的	-17826
安全期	-17827
人家的	-17828
主要还是	-17829
尽情	-17830
球衣	-17831
reen	-17832
土地使用权	-17833
卸妆	-17834
等症状	-17835
提供一个	-17836
行政区划	-17837
ific	-17838
着自己的	-17839
前线	-17840
想你	-17841
▁第四百	-17842
▁1982	-17843
严禁	-17844
汤姆	-17845
▁暗	-17846
先端	-17847
尽早	-17848
▁中医	-17849
应该会	-17850
uo	-17851
打入	-17852
场均	-17853
皱纹	-17854
也知道	-17855
这样才能	-17856
先行	-17857
购置	-17858
是新	-17859
在全球	-17860
178	-17861
^_^	-17862
任务的	-17863
1+	-17864
uz	-17865
其后	-17866
▁一起	-17867
心力	-17868
芭蕾	-17869
340	-17870
回家的	-17871
▁从小	-17872
弄得	-17873
只能用	-17874
展示了	-17875
▁你有哪些	-17876
届委员会委员	-17877
膀胱	-17878
西装	-17879
工艺品	-17880
再做	-17881
方式的	-17882
社会学	-17883
第三季	-17884
▁1.3	-17885
损耗	-17886
赛中	-17887
忧伤	-17888
▁结	-17889
手腕	-17890
天花	-17891
加个	-17892
欧冠	-17893
事业的	-17894
虫子	-17895
略有	-17896
鲨鱼	-17897
▁这就	-17898
▁富	-17899
多年前	-17900
的眼睛	-17901
那么好	-17902
日夜	-17903
等他	-17904
肛门	-17905
拖拉	-17906
我们班	-17907
(-	-17908
的剧情	-17909
PR	-17910
之物	-17911
潜伏	-17912
▁36	-17913
去医院检查	-17914
木兰	-17915
元帅	-17916
骨科	-17917
大哭	-17918
就走	-17919
旧的	-17920
立案	-17921
___	-17922
代表性	-17923
更新的	-17924
引资	-17925
时被	-17926
本是	-17927
金字	-17928
刷牙	-17929
起身	-17930
先是	-17931
一流的	-17932
古镇	-17933
唱片公司	-17934
NPC	-17935
看着我	-17936
有什么好	-17937
客气	-17938
满足了	-17939
心里的	-17940
4500	-17941
抗日战争	-17942
不知道为什么	-17943
以求	-17944
滨海	-17945
▁技能	-17946
所以就	-17947
克萨斯	-17948
托管	-17949
根号	-17950
的一位	-17951
过程的	-17952
人选	-17953
深造	-17954
▁sm	-17955
但是现在	-17956
126	-17957
155	-17958
中将	-17959
▁工	-17960
柔毛	-17961
身处	-17962
我都会	-17963
=5	-17964
杠杆	-17965
也不过	-17966
送你	-17967
创建于	-17968
HT	-17969
全景	-17970
Keroro	-17971
减弱	-17972
疑似	-17973
编织	-17974
抓好	-17975
边上	-17976
看作	-17977
细细	-17978
误导	-17979
咋办	-17980
日出	-17981
驾驭	-17982
主要从事	-17983
憧憬	-17984
转移到	-17985
一击	-17986
信的	-17987
敏锐	-17988
草本	-17989
错觉	-17990
;/	-17991
、5	-17992
完好	-17993
......(	-17994
并没有什么	-17995
▁美洲	-17996
的妈妈	-17997
的成本	-17998
都是为了	-17999
▁再次	-18000
把你的	-18001
第三届	-18002
上半	-18003
纸质	-18004
形容词	-18005
BT	-18006
巨星	-18007
海口	-18008
▁该村到	-18009
一月	-18010
车手	-18011
▁ret	-18012
发炎	-18013
▁第十二章	-18014
龙王	-18015
不公平	-18016
-09]	-18017
▁我只	-18018
韩语	-18019
一个字	-18020
从而使	-18021
▁1.4	-18022
城市规划	-18023
家和	-18024
而为	-18025
▁Is	-18026
分泌物	-18027
▁人的	-18028
的路上	-18029
插座	-18030
▁这位	-18031
就只有	-18032
▁霍	-18033
之手	-18034
羊水	-18035
对阵	-18036
深深的	-18037
早年	-18038
乌拉	-18039
民警	-18040
风采	-18041
中关村	-18042
而你	-18043
节的	-18044
烟花	-18045
咨询师	-18046
是一所	-18047
各省	-18048
库尔	-18049
肥皂	-18050
全天	-18051
活了	-18052
篇幅	-18053
他们都	-18054
单位和个人	-18055
推断	-18056
加的	-18057
容忍	-18058
或在	-18059
闹钟	-18060
▁这个是	-18061
EF	-18062
够用	-18063
药材	-18064
马家	-18065
▁音频	-18066
不下来	-18067
升降	-18068
▁过去	-18069
的概率	-18070
绿豆	-18071
充分的	-18072
这个事情	-18073
路飞	-18074
的一本	-18075
信息服务	-18076
促进了	-18077
辆车	-18078
▁比如说	-18079
▁04	-18080
支持的	-18081
并能	-18082
邓小平	-18083
的一系列	-18084
上万	-18085
气流	-18086
这样的情况	-18087
红了	-18088
▁1958	-18089
等多个	-18090
背单词	-18091
/7	-18092
8-	-18093
是人类	-18094
炒股	-18095
公公	-18096
西里	-18097
台电脑	-18098
惊悚	-18099
呼唤	-18100
限量	-18101
什么事情	-18102
EG	-18103
ility	-18104
起源于	-18105
▁尺寸	-18106
阅历	-18107
心上	-18108
目睹	-18109
reak	-18110
最后还是	-18111
▁为啥	-18112
投资人	-18113
不耐	-18114
拨号	-18115
节目的	-18116
ures	-18117
等职	-18118
的业务	-18119
正的	-18120
手机号	-18121
旋风	-18122
177	-18123
买不起	-18124
但不能	-18125
不复	-18126
买入	-18127
.1	-18128
点是	-18129
大面积	-18130
交通事故	-18131
到家	-18132
整体的	-18133
第一产业	-18134
打磨	-18135
橘子	-18136
蔓延	-18137
山庄	-18138
掩饰	-18139
教我	-18140
骂人	-18141
▁科学	-18142
想来	-18143
编导	-18144
那里的	-18145
▁鲍	-18146
五一	-18147
的性能	-18148
最深	-18149
,14	-18150
恶化	-18151
坐落于	-18152
▁思	-18153
不认识	-18154
乡村人口	-18155
Cr	-18156
虐待	-18157
钢笔	-18158
一米	-18159
▁啥	-18160
需要什么	-18161
没有被	-18162
????????	-18163
皮肤病	-18164
黄色的	-18165
1979	-18166
他与	-18167
听得	-18168
固定资产投资	-18169
大家一起	-18170
当日	-18171
可用于	-18172
oe	-18173
指针	-18174
▁大一	-18175
现代化的	-18176
意向	-18177
刷图	-18178
处境	-18179
莉莉	-18180
此前	-18181
,2013	-18182
113	-18183
了解的	-18184
开展了	-18185
▁晶	-18186
现行	-18187
工程系	-18188
委婉	-18189
回到家	-18190
为自己的	-18191
爷爷奶奶	-18192
的二	-18193
穴位	-18194
预售	-18195
刻苦	-18196
又叫	-18197
个数	-18198
政委	-18199
汕头	-18200
额头	-18201
纵向	-18202
下一代	-18203
该公司	-18204
合力	-18205
封信	-18206
真好	-18207
节度	-18208
计数	-18209
在不同	-18210
外挂	-18211
妄想	-18212
要买	-18213
小程序	-18214
地表	-18215
药水	-18216
▁你看	-18217
的工具	-18218
高出	-18219
▁及	-18220
地把	-18221
:24	-18222
邀请我	-18223
重新安装	-18224
简便	-18225
优于	-18226
)[	-18227
要和	-18228
▁类型	-18229
▁处理器	-18230
管理机关	-18231
低音	-18232
但是她	-18233
LG	-18234
理赔	-18235
螃蟹	-18236
研究与	-18237
公共服务	-18238
后有	-18239
微型	-18240
空虚	-18241
长征	-18242
▁老公	-18243
产业结构	-18244
检修	-18245
▁截止	-18246
在用	-18247
朝着	-18248
▁她们	-18249
很有意思	-18250
责任感	-18251
初衷	-18252
短的	-18253
著称	-18254
芦荟	-18255
年产	-18256
前所未	-18257
人脉	-18258
党组织	-18259
伊拉克	-18260
南路	-18261
直觉	-18262
技术开发	-18263
有多种	-18264
tt	-18265
奥迪	-18266
▁校园	-18267
▁要求	-18268
▁明明	-18269
以北	-18270
入驻	-18271
的超	-18272
看见了	-18273
平滑	-18274
动植物	-18275
第一家	-18276
大有	-18277
热衷	-18278
交通便利	-18279
长兴	-18280
▁缺点	-18281
因人而异	-18282
是吧	-18283
艾滋病	-18284
▁第二个	-18285
风气	-18286
又没有	-18287
眼科	-18288
的记忆	-18289
+4	-18290
红枣	-18291
讲了	-18292
▁Res	-18293
所以我们	-18294
▁宫	-18295
干旱	-18296
成就感	-18297
▁再说	-18298
▁400	-18299
偏好	-18300
悲惨	-18301
不理解	-18302
前提是	-18303
专柜	-18304
线和	-18305
吞噬	-18306
自然资源	-18307
▁指导意见	-18308
▁诸	-18309
封装	-18310
尤文	-18311
贵阳	-18312
▁et	-18313
▁到底	-18314
▁部分	-18315
爱自己	-18316
让你的	-18317
优质的	-18318
结婚的	-18319
▁基本参数	-18320
(*	-18321
始祖	-18322
年代初	-18323
听话	-18324
示例	-18325
红酒	-18326
1/4	-18327
工业化	-18328
▁年龄	-18329
以及对	-18330
加起来	-18331
德基	-18332
盐酸	-18333
▁mm	-18334
这样可以	-18335
的图片	-18336
▁基本上	-18337
时段	-18338
产品经理	-18339
人就	-18340
如其	-18341
排版	-18342
主要由	-18343
走走	-18344
158	-18345
仍有	-18346
;2、	-18347
不到的	-18348
▁Mac	-18349
想问	-18350
理所当然	-18351
初二	-18352
SI	-18353
接下来的	-18354
可控	-18355
知道我	-18356
熟的	-18357
默契	-18358
一个男生	-18359
动摇	-18360
的建筑	-18361
还有人	-18362
▁空间	-18363
一幅	-18364
不解	-18365
淡水	-18366
传记	-18367
平庸	-18368
恢复了	-18369
比丘	-18370
怎么写	-18371
中的一个	-18372
出让	-18373
奥斯	-18374
▁跑	-18375
当着	-18376
招牌	-18377
9.5	-18378
吃货	-18379
节食	-18380
尔顿	-18381
浦东	-18382
实在太	-18383
出过	-18384
换乘	-18385
树的	-18386
TER	-18387
▁政治	-18388
▁喜欢的	-18389
比较适合	-18390
快门	-18391
把这些	-18392
这样说	-18393
追寻	-18394
127	-18395
民谣	-18396
之首	-18397
中也	-18398
低了	-18399
和李	-18400
本体	-18401
兰特	-18402
加哥	-18403
学和	-18404
时报	-18405
液化	-18406
珍藏	-18407
一直没	-18408
在医院	-18409
艺术设计	-18410
太极拳	-18411
-08]	-18412
勘察	-18413
你看看	-18414
▁话	-18415
下定	-18416
开源	-18417
音速	-18418
植入	-18419
之光	-18420
ita	-18421
想起了	-18422
的英雄	-18423
列传	-18424
羽绒	-18425
翻译成	-18426
打招呼	-18427
的主体	-18428
我想说	-18429
中西	-18430
划归	-18431
四面	-18432
root	-18433
议员	-18434
怎么用	-18435
▁我感觉	-18436
前程	-18437
▁领导	-18438
五星	-18439
基本是	-18440
望远镜	-18441
小明	-18442
必将	-18443
所以要	-18444
下心	-18445
晒太阳	-18446
的网站	-18447
会怎么样	-18448
分析一下	-18449
房地产经纪	-18450
Internet	-18451
调到	-18452
并购	-18453
▁身体	-18454
能达到	-18455
近距离	-18456
获得者	-18457
资料来源	-18458
人所	-18459
敦煌	-18460
告诉了	-18461
自己有	-18462
青春期	-18463
▁归	-18464
▁心理	-18465
芝加哥	-18466
会有什么	-18467
小心翼翼	-18468
▁抗	-18469
杨幂	-18470
日成立	-18471
的动力	-18472
的平台	-18473
第一种	-18474
∩_	-18475
升华	-18476
中文版	-18477
为由	-18478
▁旧	-18479
益智	-18480
量身	-18481
▁文件	-18482
▁when	-18483
无数次	-18484
第五章	-18485
▁per	-18486
▁管	-18487
空心	-18488
电极	-18489
高性能	-18490
▁静	-18491
▁赛季	-18492
一个很	-18493
我是一个	-18494
稳步	-18495
∩_∩	-18496
越来越大	-18497
ontrol	-18498
几乎是	-18499
▁交	-18500
实习生	-18501
高贵	-18502
适时	-18503
我老公	-18504
打不过	-18505
是一场	-18506
起到了	-18507
oint	-18508
机上	-18509
▁完成	-18510
直辖市	-18511
avid	-18512
▁仅	-18513
稀有	-18514
通了	-18515
青梅	-18516
和研究	-18517
出栏	-18518
回家了	-18519
日正式	-18520
胡同	-18521
我身边	-18522
体系建设	-18523
GH	-18524
艾伦	-18525
补给	-18526
▁太阳	-18527
VC	-18528
的王	-18529
▁病	-18530
NE	-18531
拍拍	-18532
▁33	-18533
主办的	-18534
千古	-18535
画像	-18536
肾上	-18537
不入	-18538
当面	-18539
御史	-18540
拨打	-18541
成功率	-18542
New	-18543
非常有	-18544
几分	-18545
压力大	-18546
原来是	-18547
技术创新	-18548
+5	-18549
分组	-18550
好些	-18551
抬起	-18552
▁里面	-18553
追杀	-18554
▁主要作品	-18555
付出了	-18556
规章制度	-18557
两三	-18558
145	-18559
▁私	-18560
第二种	-18561
暂行	-18562
这样子	-18563
小便	-18564
回答这个问题	-18565
功课	-18566
4.8	-18567
斯林	-18568
不接受	-18569
牧师	-18570
中对	-18571
气囊	-18572
▁佳能	-18573
披针形	-18574
要到	-18575
表情包	-18576
OU	-18577
不到了	-18578
一步一步	-18579
不舍	-18580
和后	-18581
现今	-18582
福音	-18583
表现的	-18584
构件	-18585
礼包	-18586
配乐	-18587
▁程序员	-18588
卷子	-18589
机灵	-18590
言行	-18591
可将	-18592
▁定价	-18593
带入	-18594
游记	-18595
马桶	-18596
你不要	-18597
作为一种	-18598
dB	-18599
谁都	-18600
员工的	-18601
▁阳	-18602
5.4	-18603
,24	-18604
车厢	-18605
和好	-18606
那次	-18607
应该可以	-18608
二中	-18609
滚动	-18610
界定	-18611
▁文学	-18612
不完全	-18613
智能化	-18614
也不一定	-18615
两类	-18616
放电	-18617
有任何	-18618
潍坊	-18619
里最	-18620
7.2	-18621
河口	-18622
对不对	-18623
奇特	-18624
斑点	-18625
汇聚	-18626
变得更	-18627
醉了	-18628
不知所	-18629
月经周期	-18630
赔付	-18631
百分点	-18632
▁[20]	-18633
汉堡	-18634
运会	-18635
孕育	-18636
年版	-18637
放不下	-18638
劳累	-18639
展出	-18640
的重	-18641
合伙人	-18642
而得名	-18643
iness	-18644
大明	-18645
也没用	-18646
使命召唤	-18647
:35	-18648
▁没错	-18649
慕尼	-18650
hael	-18651
水平和	-18652
sw	-18653
会因为	-18654
学生在	-18655
市场监督管理局登记成立	-18656
ku	-18657
▁混	-18658
吃得	-18659
北平	-18660
装机	-18661
▁一年	-18662
丞相	-18663
又一	-18664
▁仙	-18665
下单	-18666
产卵	-18667
内设	-18668
荆州	-18669
找到一个	-18670
格斯	-18671
产于	-18672
小品	-18673
我和我	-18674
透了	-18675
产阶级	-18676
一章	-18677
城中	-18678
鼓舞	-18679
强壮	-18680
必修	-18681
打听	-18682
性质的	-18683
行政管理	-18684
读的	-18685
▁有人说	-18686
也不行	-18687
绅士	-18688
,13	-18689
270	-18690
▁One	-18691
火线	-18692
软件开发	-18693
▁1:	-18694
▁基础	-18695
那句	-18696
学派	-18697
关羽	-18698
建立起	-18699
搜索资料	-18700
坦白	-18701
狗的	-18702
inc	-18703
失败的	-18704
模拟器	-18705
狗粮	-18706
觉悟	-18707
所以他	-18708
▁哈哈哈	-18709
当当	-18710
季风	-18711
人民网	-18712
优越感	-18713
科大	-18714
循序	-18715
凸显	-18716
▁偶尔	-18717
一战	-18718
函授	-18719
契合	-18720
柜台	-18721
参与了	-18722
肾上腺	-18723
▁洗	-18724
违章	-18725
演唱歌曲	-18726
成正	-18727
开来	-18728
▁为什么要	-18729
某人	-18730
系统地	-18731
用一个	-18732
▁魔法	-18733
看到一个	-18734
粉的	-18735
建立的	-18736
蓝色的	-18737
vs	-18738
会怎样	-18739
Apple	-18740
心痛	-18741
盘古	-18742
▁专家	-18743
师资力量	-18744
或少	-18745
战地	-18746
什麽	-18747
195	-18748
时应	-18749
首播	-18750
珍贵的	-18751
帅的	-18752
气压	-18753
-06]	-18754
完工	-18755
拉姆	-18756
月刊	-18757
每当	-18758
钻研	-18759
INE	-18760
▁苏州	-18761
在上面	-18762
专任教师	-18763
一出	-18764
两款	-18765
西域	-18766
从没	-18767
谢谢大家	-18768
和经济	-18769
轰炸机	-18770
,0	-18771
猫的	-18772
椅子	-18773
胆小	-18774
效力于	-18775
▁every	-18776
mA	-18777
吴亦凡	-18778
两项	-18779
充足的	-18780
唯独	-18781
延期	-18782
肯定的	-18783
全班	-18784
光头强	-18785
出去了	-18786
高级教师	-18787
inese	-18788
陛下	-18789
的开发	-18790
还是个	-18791
▁深圳市	-18792
oad	-18793
▁植物	-18794
呼吁	-18795
量和	-18796
but	-18797
开户	-18798
正统	-18799
反转	-18800
了一段	-18801
劝说	-18802
▁MB	-18803
迟早	-18804
▁顺便	-18805
构成了	-18806
▁达	-18807
排位	-18808
大家都是	-18809
▁战略	-18810
盛行	-18811
▁科技	-18812
泄漏	-18813
▁they	-18814
极了	-18815
生机	-18816
技能的	-18817
刘邦	-18818
年均	-18819
无私	-18820
一级学科	-18821
中日	-18822
也更	-18823
切断	-18824
无助	-18825
能给	-18826
性价比高	-18827
▁虎	-18828
死在	-18829
热线	-18830
嫌疑人	-18831
DF	-18832
结合起来	-18833
花朵	-18834
iam	-18835
▁可见	-18836
▁草	-18837
跟风	-18838
,2014	-18839
举止	-18840
谈到	-18841
黑洞	-18842
LZ	-18843
出击	-18844
潜能	-18845
自已	-18846
表皮	-18847
联系我	-18848
一首歌	-18849
太久	-18850
背着	-18851
烤箱	-18852
和我说	-18853
▁刚开始	-18854
▁05	-18855
appy	-18856
▁我是一个	-18857
急诊	-18858
匈牙	-18859
塞罗	-18860
主要种植	-18861
希望可以	-18862
沧桑	-18863
知晓	-18864
▁影响	-18865
投资的	-18866
和你的	-18867
知道你	-18868
香的	-18869
2.9	-18870
之日	-18871
在高	-18872
奶水	-18873
透明的	-18874
▁微博	-18875
HI	-18876
承接	-18877
有病	-18878
美金	-18879
题了	-18880
▁广西	-18881
林木	-18882
琵琶	-18883
鲜肉	-18884
二期	-18885
卡西	-18886
进出	-18887
编委	-18888
发短信	-18889
服药	-18890
的地步	-18891
∩_∩)	-18892
来往	-18893
▁了解	-18894
如果您	-18895
操场	-18896
▁建设	-18897
心酸	-18898
海边	-18899
向右	-18900
恩爱	-18901
冰雪	-18902
▁假设	-18903
同学的	-18904
孢子	-18905
实事	-18906
木耳	-18907
全套	-18908
,2003	-18909
是多么	-18910
运载	-18911
是一条	-18912
四百	-18913
结识	-18914
预订	-18915
▁体育	-18916
极高的	-18917
行政处罚	-18918
围棋	-18919
▁治疗	-18920
还有其他	-18921
org	-18922
不同的是	-18923
本市	-18924
多小时	-18925
亦可	-18926
全美	-18927
原作	-18928
团委	-18929
认定为	-18930
▁SP	-18931
本专业	-18932
将被	-18933
▁手动	-18934
姑姑	-18935
强者	-18936
看她	-18937
青菜	-18938
简直就是	-18939
▁什么时候	-18940
下部	-18941
亚种	-18942
瓷砖	-18943
疗程	-18944
跟鞋	-18945
做生意	-18946
瑞克	-18947
绘本	-18948
^2+	-18949
(∩_∩)	-18950
▁号	-18951
▁破	-18952
受人	-18953
缺氧	-18954
非物质	-18955
博主	-18956
BUG	-18957
xy	-18958
▁圆	-18959
切片	-18960
坚果	-18961
选修	-18962
青蛙	-18963
ors	-18964
年被评为	-18965
没时间	-18966
管委会	-18967
生活习惯	-18968
很多事情	-18969
征求	-18970
6.3	-18971
最受欢迎	-18972
▁费	-18973
分歧	-18974
回味	-18975
悬浮	-18976
▁独立	-18977
末期	-18978
躲在	-18979
▁连续	-18980
河水	-18981
/9	-18982
你不能	-18983
外星人	-18984
我也会	-18985
汽车站	-18986
马拉松	-18987
雪山	-18988
▁佛教	-18989
了多少	-18990
变压器	-18991
早早	-18992
val	-18993
十里	-18994
就是想	-18995
三家	-18996
正常使用	-18997
卡牌	-18998
须经	-18999
结果是	-19000
巴克	-19001
冷藏	-19002
所用	-19003
瓦尔	-19004
药用	-19005
▁正如	-19006
年会	-19007
核实	-19008
▁动物	-19009
都有一个	-19010
回车	-19011
年出生	-19012
乱的	-19013
和王	-19014
▁总体	-19015
▁洪	-19016
在南	-19017
这件	-19018
科学与技术	-19019
在看	-19020
详解	-19021
进阶	-19022
中之	-19023
侵蚀	-19024
偿还	-19025
流出	-19026
猥琐	-19027
▁ST	-19028
ourn	-19029
减脂	-19030
多好	-19031
武力	-19032
',	-19033
3》	-19034
军校	-19035
烟雾	-19036
华山	-19037
只见	-19038
篇章	-19039
day	-19040
一角	-19041
▁还可以	-19042
BR	-19043
临近	-19044
迁徙	-19045
八百	-19046
祖宗	-19047
译者	-19048
黑屏	-19049
也有可能	-19050
混淆	-19051
外公	-19052
▁综上	-19053
解开	-19054
▁特点	-19055
▁婴儿	-19056
不足以	-19057
可得	-19058
教委	-19059
蕴含	-19060
进气	-19061
一个有	-19062
仅次于	-19063
(0	-19064
=&	-19065
亲友	-19066
千瓦	-19067
滑动	-19068
如果你想	-19069
▁口	-19070
急忙	-19071
追击	-19072
TML	-19073
pport	-19074
应该不会	-19075
是老	-19076
油漆	-19077
厦门市	-19078
▁3.1	-19079
古迹	-19080
道路为	-19081
担任职务	-19082
海的	-19083
这句	-19084
突出贡献	-19085
良性	-19086
跟不上	-19087
▁Le	-19088
▁战斗	-19089
针对性	-19090
▁1978	-19091
ART	-19092
▁积极	-19093
的建设	-19094
多用	-19095
越来越好	-19096
阻塞	-19097
129	-19098
取消了	-19099
比不上	-19100
肉质	-19101
贵了	-19102
7.8	-19103
微波炉	-19104
海滩	-19105
趁着	-19106
皮肤的	-19107
顺畅	-19108
事事	-19109
▁楚	-19110
来访	-19111
等情况	-19112
逼迫	-19113
都不行	-19114
交接	-19115
光了	-19116
模式下	-19117
谈不上	-19118
丰满	-19119
晓得	-19120
的攻击	-19121
榜样	-19122
有三个	-19123
没得	-19124
第四节	-19125
▁世界上	-19126
悲观	-19127
▁等等	-19128
▁极	-19129
繁多	-19130
新闻出版	-19131
革新	-19132
▁貌似	-19133
情歌	-19134
唱功	-19135
就不说了	-19136
打进	-19137
超频	-19138
右脚	-19139
在欧洲	-19140
是真的吗	-19141
树种	-19142
宝贵的	-19143
确定了	-19144
上也	-19145
捷径	-19146
无为	-19147
的费用	-19148
一般不会	-19149
▁杀	-19150
放射性	-19151
张艺兴	-19152
写到	-19153
制片人	-19154
招待	-19155
碎了	-19156
所周知	-19157
单人	-19158
率和	-19159
畏惧	-19160
边形	-19161
杯冠军	-19162
北路	-19163
趁机	-19164
40%	-19165
之门	-19166
犯规	-19167
▁鸿	-19168
平坦	-19169
的手段	-19170
的计划	-19171
微分	-19172
不错了	-19173
sv	-19174
那段时间	-19175
经济技术	-19176
大酒店	-19177
▁gr	-19178
取名字	-19179
服的	-19180
失控	-19181
中国家	-19182
时间长了	-19183
一侧	-19184
下半年	-19185
在剧中饰演	-19186
笑的	-19187
身亡	-19188
:【	-19189
报了	-19190
-07]	-19191
重要作用	-19192
无耻	-19193
风口	-19194
疏松	-19195
中国内地	-19196
再把	-19197
发脾气	-19198
教育工作	-19199
病房	-19200
锅内	-19201
uto	-19202
-02]	-19203
▁冬	-19204
他所	-19205
及应用	-19206
工艺美术	-19207
北京的	-19208
新中国	-19209
生产企业	-19210
相关资料	-19211
139	-19212
整套	-19213
政协委员	-19214
民歌	-19215
英俊	-19216
和白	-19217
经期	-19218
了不起	-19219
奥尔	-19220
眼看	-19221
预先	-19222
产业的	-19223
战机	-19224
腿部	-19225
是可以的	-19226
有线电视	-19227
几年前	-19228
在想	-19229
里边	-19230
的感受	-19231
asy	-19232
本人的	-19233
-05]	-19234
长子	-19235
浇水	-19236
脊椎	-19237
辩护	-19238
过错	-19239
河流域	-19240
应当按照	-19241
凉了	-19242
揭露	-19243
ichael	-19244
听取	-19245
翻唱	-19246
发个	-19247
玲珑	-19248
▁我自己	-19249
28.	-19250
3.9	-19251
北纬	-19252
是先	-19253
开场	-19254
硝酸	-19255
到这个	-19256
▁留	-19257
做起	-19258
骨质	-19259
arm	-19260
++++	-19261
不以	-19262
纳粹	-19263
问世	-19264
牌照	-19265
必须有	-19266
除非你	-19267
制成的	-19268
这种方法	-19269
不谈	-19270
都有哪些	-19271
领导干部	-19272
TT	-19273
的人格	-19274
沙拉	-19275
都是从	-19276
哎呀	-19277
很厉害	-19278
▁way	-19279
▁几	-19280
上世纪	-19281
的资料	-19282
车道	-19283
都不好	-19284
迷糊	-19285
:100	-19286
引流	-19287
换货	-19288
▁Zh	-19289
上场	-19290
座的	-19291
荷花	-19292
的反应	-19293
店面	-19294
热巴	-19295
监制	-19296
10、	-19297
年获得	-19298
同济	-19299
钢板	-19300
个字	-19301
民工	-19302
一定程度	-19303
又一个	-19304
-04]	-19305
内存卡	-19306
了好久	-19307
质量管理	-19308
胰岛	-19309
虚空	-19310
为我们	-19311
公司和	-19312
经营的	-19313
食谱	-19314
渊源	-19315
屋子	-19316
可是我	-19317
不必要的	-19318
养活	-19319
拜访	-19320
恐慌	-19321
投产	-19322
个国家	-19323
海里	-19324
六七	-19325
因缘	-19326
跟他们	-19327
教育培训	-19328
▁董	-19329
的的	-19330
想到了	-19331
庆典	-19332
无愧	-19333
这样的问题	-19334
一议	-19335
公演	-19336
vid	-19337
每小时	-19338
客串	-19339
更像	-19340
发动机的	-19341
凑合	-19342
代言人	-19343
▁导	-19344
通货	-19345
的联系	-19346
然后我就	-19347
的自	-19348
▁sc	-19349
被发现	-19350
host	-19351
听课	-19352
籍贯	-19353
中书	-19354
▁商业	-19355
唐山	-19356
球形	-19357
校内	-19358
订购	-19359
这群	-19360
打篮球	-19361
▁[21]	-19362
一龙	-19363
老太太	-19364
文化传播	-19365
现存	-19366
出了问题	-19367
副主任委员	-19368
细微	-19369
是用来	-19370
▁宁	-19371
▁现有	-19372
今后的	-19373
▁stud	-19374
博学	-19375
治国	-19376
招商引资	-19377
之声	-19378
手柄	-19379
年高考	-19380
我国的	-19381
自己能	-19382
走出来	-19383
药学	-19384
香油	-19385
广义	-19386
养殖业	-19387
主要为	-19388
药剂	-19389
说来	-19390
可以多	-19391
玩意儿	-19392
痔疮	-19393
ott	-19394
保护的	-19395
瓶子	-19396
存在感	-19397
首先是	-19398
▁‘	-19399
不远	-19400
产期	-19401
困难的	-19402
-03]	-19403
▁South	-19404
忙着	-19405
权和	-19406
规范性	-19407
音乐人	-19408
的经典	-19409
,2002	-19410
印发	-19411
省略	-19412
还是不要	-19413
兄妹	-19414
▁没想到	-19415
本科毕业	-19416
不走	-19417
光谱	-19418
抗震	-19419
皮革	-19420
全面发展	-19421
凉的	-19422
根据你的	-19423
的是一个	-19424
电厂	-19425
gay	-19426
可不是	-19427
殖民地	-19428
适配器	-19429
智障	-19430
处以	-19431
已婚	-19432
雅典	-19433
或者在	-19434
呆了	-19435
60.	-19436
都是一个	-19437
转账	-19438
皇宫	-19439
看个人	-19440
独生	-19441
▁150	-19442
▁言	-19443
哲学家	-19444
中人	-19445
空格	-19446
致敬	-19447
你先	-19448
使我	-19449
兼容性	-19450
认清	-19451
送我	-19452
母婴	-19453
max	-19454
免税	-19455
vent	-19456
亿万	-19457
映射	-19458
鸭子	-19459
▁解释	-19460
的战斗	-19461
长生	-19462
买单	-19463
卖掉	-19464
清算	-19465
显示出	-19466
▁To	-19467
都应该	-19468
国家标准	-19469
是连载于	-19470
防弹	-19471
▁第二次	-19472
苏轼	-19473
iao	-19474
一族	-19475
猜想	-19476
个个	-19477
返还	-19478
谓之	-19479
eep	-19480
▁配置	-19481
DM	-19482
拳头	-19483
河西	-19484
。2018	-19485
研究生学历	-19486
随笔	-19487
帝国的	-19488
点心	-19489
背影	-19490
驾车	-19491
懂事	-19492
扭转	-19493
▁对了	-19494
共分	-19495
一动	-19496
▁这部	-19497
的材料	-19498
▁玄	-19499
抵御	-19500
▁人口	-19501
加利亚	-19502
和专业	-19503
身旁	-19504
▁Air	-19505
▁那天	-19506
作品集	-19507
打破了	-19508
交集	-19509
和支持	-19510
仅为	-19511
爱护	-19512
安装在	-19513
举措	-19514
所见	-19515
的未来	-19516
密斯	-19517
派对	-19518
海绵	-19519
读者的	-19520
中国特色	-19521
出水	-19522
深层	-19523
十五年	-19524
的战略	-19525
ebook	-19526
无用	-19527
新浪网	-19528
▁爸爸	-19529
▁我不是	-19530
再有	-19531
▁Chapter	-19532
歌剧	-19533
;19	-19534
最基本的	-19535
时钟	-19536
quest	-19537
其在	-19538
了之后	-19539
有一条	-19540
跨国公司	-19541
专员	-19542
将以	-19543
沙雕	-19544
行政机关	-19545
外伤	-19546
▁Sc	-19547
▁十一	-19548
有期徒刑	-19549
▁制	-19550
列出	-19551
新陈代谢	-19552
六大	-19553
房地	-19554
185	-19555
的比较	-19556
▁退	-19557
和阿	-19558
想像	-19559
扮演角色	-19560
契机	-19561
棒的	-19562
胶原蛋白	-19563
肾功能	-19564
万字	-19565
园艺	-19566
oci	-19567
▁周边	-19568
书上	-19569
总督	-19570
▁是什么	-19571
利兹	-19572
刹那	-19573
拜仁	-19574
腰带	-19575
比别人	-19576
▁我相信	-19577
国际米兰	-19578
不自	-19579
是多	-19580
估算	-19581
英镑	-19582
也让	-19583
山镇	-19584
▁4,	-19585
▁加上	-19586
门派	-19587
昼夜	-19588
▁你知道	-19589
动人	-19590
迹象	-19591
▁34	-19592
农业生产	-19593
与大	-19594
立志	-19595
学习方法	-19596
一楼	-19597
壮观	-19598
▁传	-19599
动静	-19600
旁观	-19601
不得了	-19602
提到了	-19603
unction	-19604
宇航	-19605
[1]	-19606
子宫内膜	-19607
是不是真的	-19608
愿景	-19609
纹理	-19610
▁电视	-19611
闪光灯	-19612
中立	-19613
公分	-19614
克林	-19615
被害	-19616
凝固	-19617
意料	-19618
谁会	-19619
语言学	-19620
特区	-19621
非常非常	-19622
好歹	-19623
摄氏	-19624
▁创业	-19625
是他们	-19626
亿立方米	-19627
尿酸	-19628
独有的	-19629
将自己的	-19630
▁赤	-19631
▁闲	-19632
妈的	-19633
年左右	-19634
地方政府	-19635
相逢	-19636
▁麻烦	-19637
体现出	-19638
巴尔	-19639
▁患者	-19640
我们也	-19641
何以	-19642
趋于	-19643
项羽	-19644
();	-19645
价格在	-19646
总体规划	-19647
0.7	-19648
不合格	-19649
和企业	-19650
fc	-19651
上路	-19652
未见	-19653
腰部	-19654
▁城	-19655
卡车	-19656
▁演唱	-19657
国家自然科学基金	-19658
放着	-19659
▁塔	-19660
人性的	-19661
的父母	-19662
文革	-19663
隐隐	-19664
对胎儿	-19665
专线	-19666
变大	-19667
师长	-19668
▁我没有	-19669
航空航天	-19670
▁西班牙	-19671
二楼	-19672
继承人	-19673
余种	-19674
喝茶	-19675
领导者	-19676
了一天	-19677
一事一议	-19678
两部	-19679
乳液	-19680
▁知识	-19681
微电影	-19682
不得不说	-19683
在山	-19684
余名	-19685
长老	-19686
坚定的	-19687
异味	-19688
的古	-19689
慕尼黑	-19690
▁弗	-19691
第一款	-19692
橡皮	-19693
赛区	-19694
降到	-19695
▁q	-19696
的功效	-19697
欢迎使用	-19698
们都	-19699
▁大地	-19700
利益相关	-19701
前段时间	-19702
厅长	-19703
差评	-19704
炮塔	-19705
观众的	-19706
钢管	-19707
现实生活中	-19708
向南	-19709
薪水	-19710
如何在	-19711
-01]	-19712
▁touch	-19713
▁ag	-19714
前十	-19715
那张	-19716
刺杀	-19717
瘦肉	-19718
▁1979	-19719
▁话题的优秀回答者	-19720
无从	-19721
有次	-19722
爱着	-19723
条纹	-19724
把他们	-19725
▁see	-19726
中二	-19727
墙面	-19728
其实我	-19729
当我们	-19730
泛滥	-19731
有名的	-19732
太守	-19733
不包括	-19734
做好了	-19735
在其他	-19736
私信我	-19737
怎么办呢	-19738
138	-19739
的含义	-19740
白带	-19741
规模以上	-19742
关门	-19743
沼泽	-19744
波澜	-19745
效果好	-19746
etter	-19747
球菌	-19748
提升自己	-19749
修罗	-19750
武警	-19751
膜炎	-19752
虚无	-19753
傻瓜	-19754
切入	-19755
建制	-19756
▁分析	-19757
▁盖	-19758
▁钟	-19759
安阳	-19760
瑕疵	-19761
逃亡	-19762
▁su	-19763
匈牙利	-19764
戴安娜	-19765
是自己的	-19766
173	-19767
取得的	-19768
四个月	-19769
并获得	-19770
相貌	-19771
约有	-19772
▁先说	-19773
▁早上	-19774
▁work	-19775
FS	-19776
Or	-19777
太监	-19778
证的	-19779
的一致	-19780
这么久	-19781
show	-19782
建筑师	-19783
二号	-19784
蒂斯	-19785
蔡徐坤	-19786
自己想要	-19787
▁无线	-19788
不靠谱	-19789
继承了	-19790
这种方式	-19791
考虑是	-19792
VGA	-19793
幻影	-19794
栗子	-19795
问过	-19796
范围的	-19797
周一	-19798
第三百	-19799
统治者	-19800
iTunes	-19801
▁38	-19802
无边	-19803
圣诞节	-19804
写在	-19805
▁小时	-19806
快速发展	-19807
不限	-19808
书本	-19809
家人的	-19810
副总经理	-19811
▁软	-19812
值班	-19813
往返	-19814
▁免费	-19815
手中的	-19816
心事	-19817
闭合	-19818
攻打	-19819
游乐	-19820
舞曲	-19821
的特殊	-19822
而下	-19823
也有人	-19824
▁say	-19825
▁[23]	-19826
向北	-19827
学堂	-19828
可能在	-19829
审视	-19830
鬼子	-19831
不好说	-19832
所学校	-19833
cept	-19834
们在	-19835
领军	-19836
为广大	-19837
▁there	-19838
NH	-19839
删除了	-19840
富汗	-19841
肥料	-19842
宣扬	-19843
▁减肥	-19844
▁都市	-19845
▁片	-19846
▁面	-19847
地道	-19848
急着	-19849
但是却	-19850
喜欢看	-19851
倘若	-19852
牵头	-19853
矿井	-19854
也是在	-19855
转换成	-19856
冷战	-19857
壮族	-19858
眩晕	-19859
表的	-19860
▁国外	-19861
一分钱	-19862
从小到大	-19863
加固	-19864
学英语	-19865
就从	-19866
我先	-19867
▁完美	-19868
插画	-19869
ittle	-19870
血症	-19871
起初	-19872
六个月	-19873
的意见	-19874
▁2.3	-19875
致癌	-19876
晋江文学	-19877
减退	-19878
房源	-19879
三体	-19880
谁有	-19881
间距	-19882
▁那时	-19883
脱水	-19884
走来	-19885
然后就是	-19886
九州	-19887
复古	-19888
迟到	-19889
60%	-19890
优美的	-19891
设计院	-19892
▁阴	-19893
剧集	-19894
以内的	-19895
招人	-19896
时速	-19897
交错	-19898
出院	-19899
En	-19900
敲门	-19901
都是这样	-19902
勘探	-19903
感光	-19904
▁会员	-19905
会成为	-19906
组委会	-19907
不良反应	-19908
也多	-19909
悠言	-19910
本金	-19911
ama	-19912
忠实	-19913
rop	-19914
成都市	-19915
的销售	-19916
可以达到	-19917
反向	-19918
天蝎	-19919
油炸	-19920
▁win	-19921
国际电影节	-19922
为己	-19923
是高	-19924
确切	-19925
胜任	-19926
顾虑	-19927
出个	-19928
比特币	-19929
这人	-19930
申论	-19931
菜肴	-19932
征集	-19933
在路上	-19934
作家协会	-19935
详尽	-19936
▁奇	-19937
夜白	-19938
拓宽	-19939
过长	-19940
床垫	-19941
▁she	-19942
恢复正常	-19943
蒙特	-19944
矿泉水	-19945
1900	-19946
是怎样一种	-19947
’。	-19948
酵母	-19949
摩托罗拉	-19950
基友	-19951
印象深刻	-19952
之气	-19953
你我	-19954
没有关系	-19955
▁挺	-19956
容貌	-19957
文学奖	-19958
▁21.	-19959
年以上	-19960
的画面	-19961
元宝	-19962
▁11、	-19963
可以分为	-19964
指正	-19965
▁少年	-19966
与环境	-19967
百分百	-19968
字符串	-19969
是一座	-19970
全自动	-19971
的工资	-19972
技嘉	-19973
攻读	-19974
止损	-19975
表哥	-19976
都不用	-19977
经营活动	-19978
▁速	-19979
推荐一下	-19980
立即前往	-19981
乐于	-19982
浮动	-19983
积蓄	-19984
PN	-19985
侠盗	-19986
时分	-19987
得更	-19988
浮躁	-19989
▁你为什么	-19990
加剧	-19991
收纳	-19992
淇淋	-19993
铺垫	-19994
中兴	-19995
肉眼	-19996
坐落在	-19997
可口可乐	-19998
和马	-19999
落到	-20000
问候	-20001
的哦	-20002
给您	-20003
病人的	-20004
过户	-20005
进货	-20006
职业学校	-20007
委员会主任	-20008
安顺	-20009
稳健	-20010
风貌	-20011
估计是	-20012
挂钩	-20013
民族的	-20014
需要你	-20015
弥漫	-20016
贯通	-20017
▁东北	-20018
在那个	-20019
规模的	-20020
日常生活中	-20021
被盗	-20022
要钱	-20023
忘不了	-20024
▁另一	-20025
也不太	-20026
贸市场	-20027
投资管理	-20028
其一	-20029
混混	-20030
arch	-20031
▁end	-20032
不明显	-20033
当选为	-20034
最容易	-20035
土木工程	-20036
发展成为	-20037
办了	-20038
和国际	-20039
▁我可以	-20040
巴基斯坦	-20041
区长	-20042
水里	-20043
▁All	-20044
先天性	-20045
需要一个	-20046
改版	-20047
菲利普	-20048
机智	-20049
总是在	-20050
根本没	-20051
鲫鱼	-20052
世界各地	-20053
PCI	-20054
光圈	-20055
痘印	-20056
穿衣	-20057
萨尔	-20058
▁比赛	-20059
多利亚	-20060
语言文学	-20061
under	-20062
更具	-20063
的保护	-20064
改变自己	-20065
陆地	-20066
命中率	-20067
告诉自己	-20068
海豚	-20069
▁大连	-20070
典故	-20071
凡是	-20072
魔神	-20073
▁成功	-20074
饿了	-20075
流动性	-20076
为客户提供	-20077
▁_	-20078
字号	-20079
来潮	-20080
颇为	-20081
孤独的	-20082
新华网	-20083
每天晚上	-20084
都不想	-20085
GN	-20086
▁补	-20087
也对	-20088
录用	-20089
文集	-20090
无意中	-20091
支流	-20092
诡异	-20093
那条	-20094
▁检查	-20095
木头	-20096
1-3	-20097
▁含	-20098
▁虽	-20099
▁鸟	-20100
管用	-20101
伸出	-20102
riv	-20103
之女	-20104
救赎	-20105
无害	-20106
育种	-20107
层次的	-20108
和解	-20109
战线	-20110
不调	-20111
厚重	-20112
排在	-20113
擦拭	-20114
查出	-20115
让人觉得	-20116
短篇	-20117
说呢	-20118
嘴角	-20119
现身	-20120
了一套	-20121
▁肖	-20122
不强	-20123
蜜蜂	-20124
▁中文名称	-20125
卫生所	-20126
神经病	-20127
研制的	-20128
ivo	-20129
的性质	-20130
外侧	-20131
慈悲	-20132
用户体验	-20133
高级中学	-20134
牙膏	-20135
有什么好的	-20136
文理	-20137
变色	-20138
歌迷	-20139
货车	-20140
一下就	-20141
个百分点	-20142
indle	-20143
内饰	-20144
怎么去	-20145
围观	-20146
包括了	-20147
王妃	-20148
举办了	-20149
行业协会	-20150
无能	-20151
点亮	-20152
[...]
